بىر 31225
. 27654
، 10236
ئەر 7939
رەڭلىك 6601
كىيگەن 6530
ئايال 4647
ئىككى 4063
توپ 3467
ئادەم 3302
بالا 3299
بىلەن 2958
ۋە 2891
كۆڭلەك 2567
قارا 2280
ئاق 2236
ئوغۇل 2050
تۇراتتى 1963
كۆك 1935
قىز 1825
قىزىل 1793
سېرىق 1706
ئىت 1668
- 1636
كىچىك 1529
ياش 1467
كىيىم 1451
كىشىلەر 1383
سۇ 1375
ئويناۋاتىدۇ 1295
يېنىدا 1285
بار 1201
ئالدىدا 1155
ئولتۇرۇپ 1134
ئۈچ 1098
قاراپ 1083
ئولتۇردى 1078
چاپان 965
ئۇزۇن 964
قوڭۇر 947
كىيىپ 945
يېشىل 930
ئىدى 919
ئېلىپ 912
ئۈستىدە 902
يەنە 862
ۋېلىسىپىت 857
كىيىۋالغان 834
تۇرۇپ 830
ئۇنىڭ 827
چوڭ 782
قىلىۋاتىدۇ 773
دېڭىز 771
كوچىدا 747
رەڭ 744
كىيىمى 725
ماڭدى 717
بۇ 711
بولۇپ 702
چاچلىق 700
تەنھەرىكەتچىسى 687
قىلدى 685
پىيادىلەر 680
تۇرىدۇ 661
ئىشتان 651
ھازىر 632
ئۆتتى 629
قارىدى 629
يولىدا 626
سەكرەپ 617
بىرى 611
تاقىۋالغان 592
چۈشتى 585
ئۇچىسىغا 577
ئورۇندۇقتا 556
كېتىۋاتاتتى 546
قار 544
پۇتبول 544
خانىم 538
شەپكە 530
قىزغۇچ 517
ئارقا 510
كەتتى 505
نەچچە 500
پارچە 500
كۆزەينەك 497
ھال 490
مۇزىكا 478
قولىدا 466
تۆت 457
ئۇلارنىڭ 439
چىملىقتا 420
سىرتتا 417
مىنىپ 414
ئۈزۈش 411
سۈرەتكە 411
بالىلار 409
پادىچىلار 407
ئۇ 405
ياشانغان 404
مىنگەن 403
ئۆتۈپ 397
بويلاپ 394
تېيىلىش 386
گىتار 386
كەينىدە 380
تۇرغان 378
كالتە 372
تاغ 371
كۆرۈۋاتىدۇ 367
كۈلۈمسىرەپ 365
يۈگۈردى 365
جۈپ 364
ئوت 363
ئىچىدە 360
ئالدى 353
خىزمەت 350
قول 350
يولدا 349
قويدى 345
كالتەك 345
نۇرغۇن 344
ئۇسسۇل 339
ئىشتىنى 338
ئويۇن 335
ساھىلىدا 335
بىللە 332
ئاسىيالىق 331
شەھەر 331
مەيدانىدا 329
نەپەر 328
قالپاق 327
قۇرۇلۇش 325
كۆتۈرۈۋالغان 323
تاماق 318
كۈل 318
كېسىپ 318
مايكىسى 313
ماشىنا 311
سىيرىلما 309
چەتتە 306
كۆردى 303
ئاستىدا 302
سۇدا 302
چېلىۋاتىدۇ 302
ئولتۇراتتى 301
تاختا 300
يەردە 299
دەرەخ 296
سىرتتىكى 295
ئوينىدى 287
ئەتراپىدا 287
چىقتى 283
بوۋاي 276
قاردا 274
مايكا 270
يوللۇق 267
بېشىغا 266
ئەرلەر 265
دولقۇن 264
سەھنىدە 264
بوشلۇقتا 263
قىلىدۇ 263
تۇردى 262
سەيلە 262
فورما 260
تەييارلىق 259
قىزچاق 259
كۆرۈنۈشى 259
ئەرنىڭ 256
ئات 253
پاراڭلاشتى 253
مۇز 250
ناخشا 250
ئولتۇرغان 249
بويىدا 249
ئېگىز 248
تال 247
تەنلىك 244
چاچ 244
يېمەكلىك 242
سىرتىدا 240
ياغاچ 239
تەرەپتىن 237
كۆتۈرۈپ 236
ئاياللار 234
يول 230
قېنىق 228
ئاسما 227
تاش 227
كوچا 227
سۆسۈن 226
t 225
قولىنى 224
قىسىم 219
سەكرىدى 216
ئالدىدىكى 215
ناھايىتى 215
يۈگۈرۈش 214
قالپىقى 213
ئوچۇق 212
ئىچىدىكى 211
ئارىلاشقان 210
بولدى 210
خەت 208
ئۈستەلنىڭ 207
كۆرسەتتى 207
توپنى 205
ئۈچۈن 203
يۈك 202
تاقىغان 201
مېڭىۋاتىدۇ 201
كاستۇم 200
تەنھەرىكەت 199
ئۈستەل 198
ماھىرى 197
مەيدان 197
نۇرى 197
كىتاب 195
نى 195
ئويۇنچۇق 194
نىڭ 191
چويلا 185
ئارىسىدا 184
ئاياغ 184
قالدى 184
ئەترىتى 183
موتسىكلىت 183
چالدى 183
بۇرۇلكا 182
بەش 182
توپى 182
ياتاتتى 182
نەرسە 181
ۋاسكېتبول 181
مىندى 180
بوۋاق 179
« 178
ئاممىۋى 178
تېيىلىۋاتىدۇ 178
مال 178
مۇسابىقىسىدە 178
باشقا 177
توپا 177
قولىغا 177
مۇسابىقە 177
ئايالنىڭ 176
باغچىدا 176
قاپلانغان 176
قىياپەت 176
تېلېفون 175
خىش 175
دالا 175
قويۇۋالغان 175
قۇياش 175
ئاشخانىدا 174
كۈنلۈك 174
ئۇرۇندى 173
رەڭگارەڭ 173
چىقاردى 173
» 171
ئۆيدە 171
يوپكا 170
قىلىپ 168
كۆتۈردى 168
يېنىدىكى 168
پۇتى 168
چىغىر 168
تىك 167
ساقلاۋاتىدۇ 166
يۆلىنىپ 166
ئەتراپىدىكى 164
قاراۋاتىدۇ 164
يۈرەتتى 164
تام 163
يېرىم 161
ئاغزىدا 159
خىل 159
بالىنىڭ 158
بولغان 158
قاچىلانغان 158
قۇرامىغا 158
گۈل 158
رەسىم 157
يەۋاتىدۇ 156
ئارام 155
بىخەتەرلىك 155
ئاسمانغا 154
كۆتۈرۈۋالغانىدى 154
كۆز 154
خاتىرە 153
خۇشال 153
لىق 153
ماھارەت 153
ساقال 152
كىشى 152
كىيىۋاپتۇ 152
چاقماق 152
ئىلەڭگۈچ 150
بېشىنى 150
كوچىنى 150
تۇتۇپ 149
چېپىپ 149
كۈچۈك 148
سۇغا 147
ياشلىق 147
يان 147
ئادەمنىڭ 146
ياكى 146
بىنانىڭ 145
بېلىق 144
تۈپ 144
قۇچاقلاپ 144
ئالدىراش 142
تىكىلىپ 141
بويىدىكى 140
تارتىۋاتىدۇ 140
مۇسابىقىسى 140
كەتكەن 139
قارىماققا 138
قالغان 138
تەنتەربىيە 137
باشقىلار 135
تاقاپ 135
مېتال 135
پوپايكا 135
ئوتتۇرا 134
پاراڭلىشىۋاتىدۇ 133
يۈگۈرۈپ 132
يامىشىپ 131
ئوخشاش 130
ئېلىۋاتىدۇ 130
باش 130
بالىنى 130
ساقچى 130
كونا 130
يىغىلدى 130
ماشىنىنىڭ 129
يالىڭاچ 129
ئاپتوموبىلى 128
ئويناۋاتاتتى 128
ئۈستىگە 128
جىنسلىرى 128
قۇملۇقتا 127
مۇسابىقىدە 127
تىپتىكى 126
سەكرەۋاتىدۇ 126
يۈرىدۇ 126
چاقلىق 126
يۈزىگە 124
ھالدا 124
ئويۇنى 123
يەتكەن 123
پىيادە 123
كۆلچىكىدە 122
ئېكرانغا 121
تېيىلغۇچى 120
مەشىق 120
ئۇنىڭغا 119
سالدى 119
ياشلار 119
يىگىت 119
چىراغ 119
ئۆي 118
ئەبلەخ 118
بولسا 118
سومكا 118
يەرگە 118
تامغا 117
فوتو 117
مېڭىشنى 117
ئولتۇرىدۇ 116
دۆۋە 116
زور 116
مىكروفونغا 116
ئاتتى 115
غايەت 115
قۇم 115
ئۆگىنىۋاتقان 114
يامىشىۋاتىدۇ 114
قىسقا 113
كۆرۈنۈش 112
كۈلۈپ 112
ئىتنى 111
تۇتقان 111
ئۇچار 110
ئۈستىدىكى 110
كەچتە 110
مەلۇم 110
ئالاھىدە 109
تاماكا 109
يانتۇ 108
يولنى 108
يېقىن 108
گۈزەل 108
بەردى 107
تاختىسى 107
قەغەز 107
مەيداندا 107
ئافرىقىلىق 106
تاماشىبىنلار 106
دېرىزە 106
قىستاڭچىلىق 106
ئىمارەتنىڭ 105
مېڭىپ 105
چىقىپ 105
ئۆرە 104
نەرسىنى 104
ئارقىلىق 103
ئوتتۇرىسىدا 103
ئېيتتى 103
ساياھەت 103
قاغا 103
چۈشۈپ 103
كۈندە 102
كېمىدە 102
ئىشچى 101
كۈن 101
مىنىۋاتىدۇ 101
ئىشچىسى 100
قويۇپ 100
پويىز 100
چىقىرىپ 100
ئالتۇن 99
يولدىن 99
چۆپلەر 99
ھەر 99
نەرسىلەرنى 98
چۆرىدەپ 98
ئورمانلىقتا 97
رېمونت 97
غا 97
پەلەمپەيدە 97
ئارغامچا 96
تاغقا 96
قۇرۇق 96
ماشىنىسىنىڭ 96
تەخسە 95
سۇس 95
سېتىۋېلىش 95
كومپيۇتېر 95
نەزەر 95
ئۇلار 94
تۇتۇۋالدى 94
سىيرىلىپ 94
كۈلۈمسىرىدى 94
ياساۋاتىدۇ 94
يېڭى 94
ھارۋىسىنى 94
ئىللىق 93
باغچىدىكى 93
تولغان 93
كەينىگە 93
پۇل 93
قويغان 92
پولدا 92
ئاتقا 91
ئۆچۈرۈش 91
رەسىمگە 91
كۆرۈنۈشتە 91
ماشىنىسى 91
يالغۇز 91
يەر 91
ئىچىملىك 90
بوۋاقنى 90
توي 90
ياسالغان 90
يېزىلغان 90
پادىچى 90
پۇلاڭلاتتى 90
ئۆزىنىڭ 89
ئەترىتىنىڭ 89
يۈزىنى 89
ئىتى 88
ئۇنى 88
تاغدىن 88
قىلغان 88
كىشىلەرنىڭ 88
ئۇششاق 87
تارتتى 87
تازىلاۋاتىدۇ 87
رېشاتكا 87
گېزىت 87
بەزى 86
دۇمباق 86
سۇلياۋ 86
قولى 86
يېتىپ 86
ھويلىدا 86
ئۆزئارا 85
ئەينەك 85
يولىنى 85
گۇرۇپپا 85
ئۆينىڭ 84
بىلىكىنى 84
كۆل 84
مېۋە 84
ئائىلە 83
ئىستاكان 83
ئەخلەت 83
يېنىدىن 83
ئاسىيا 82
ئىشىك 82
تاختىسىدا 82
تەرىپىدىن 82
دىن 82
دۇكاننىڭ 82
سىرتىدىكى 82
قاتناشتى 82
قىلىۋاتاتتى 82
كۆرسىتىۋاتىدۇ 82
كەينىدىن 82
ھاراق 82
ئالتە 81
تامدا 81
يۈدۈپ 81
پىۋا 81
چوماق 81
تار 80
سافادا 80
سېمونت 80
قىزنىڭ 80
كوماندىسى 80
قويۇلغان 79
كوچىدىكى 79
پەلەي 79
چېچىنى 79
ھاۋا 79
ئېتىزلىقتا 78
كېيىن 78
سەنئەت 77
كېمە 77
مىكروفون 77
پۇشتىدىن 77
قۇچاقلىدى 76
چېلىپ 75
ئانا 74
شەكىللىك 74
قارشى 74
مۇسابىقىسىگە 74
يېدى 74
پۇتىنى 74
پەرتۇق 74
ئون 73
بەزىلەر 73
بەلگىسى 73
سىزىۋاتىدۇ 73
كوچىسىدا 73
كۆلچىكىگە 73
ئاپتوموبىل 72
بولمىغان 72
يېزا 72
گۈللۈك 72
ئالدىغا 71
دالىدا 71
رايونىدا 71
قارلىق 71
قىياغا 71
ماشىنىسىدا 71
ئېلان 70
ئېلېكترونلۇق 70
بوۋاقلار 70
خالتا 70
سىرتقا 70
قاتار 70
كۆرسىتىش 70
ئۈزۈۋاتىدۇ 69
ئۈستىدىن 69
دىكى 69
شەپكىسى 69
قوپۇرۇلغان 69
كۆپ 69
مۆتىۋەر 69
ئېسىۋالغان 68
بازاردا 68
شارپا 68
كەينىدىكى 68
لاي 68
ياردەم 68
يىغىلىپ 68
ۋالىبول 68
ئاستا 67
ئېتىۋاتىدۇ 67
ئەرگە 67
بولىدۇ 67
بىكىنى 67
دۆلەت 67
قوغلاۋاتىدۇ 67
ياخشى 67
چىرايلىق 67
ھەيدەپ 67
ئۆيىدە 66
ئۆچرەتتە 66
ئېلىش 66
بىرلىكتە 66
ساھىلىدىكى 66
سەھنە 66
كانكى 66
لار 66
ئاسراش 65
ئامېرىكىلىق 65
ئويناۋاتقان 65
تۇتتى 65
كۆپۈك 65
كەش 65
ئورنىدا 64
ئۇردى 64
ئۈستى 64
ئەتراپتا 64
بولىڭ 64
بېرىۋاتىدۇ 64
زوڭزىيىپ 64
ساپما 64
سۆز 64
شەھەرنىڭ 64
ياغاچتىن 64
پۈتۈن 64
ھەربىي 64
ئامېرىكا 63
ئىتنىڭ 63
توختىتىش 63
دېگەن 63
دەريا 63
دەرەخلەر 63
دەپ 63
قۇرۇلۇشنىڭ 63
كىيىملىك 63
چىشلەپ 63
گە 63
بېلىنى 62
تۆۋەن 62
كوچىلىرىدا 62
كىيمىگەن 62
يولىدىكى 62
يۈزىدە 62
يېتىلەپ 62
گەپ 62
ھەمدە 62
ئاشىق 61
ئىشچىلار 61
ئىشچىلىرى 61
ئېسىلغان 61
ئەينىكى 61
بەك 61
كۆكتات 61
يۈگۈرەۋاتىدۇ 61
چالىدۇ 61
ۋاقىتتا 61
ئاستىدىكى 60
ئورمانلىقتىكى 60
ئىسسىق 60
بۇياققا 60
قىزلار 60
لەيلەپ 60
ماروژنى 60
مەشۇقلار 60
ياغلىق 60
پەلەمپەيدىن 60
چەۋەنداز 60
ۋاتىدۇ 60
ئىسكىرىپكا 59
ئۇياقتىن 59
ئەرنى 59
ساز 59
سى 59
سىنى 59
سىيرىلغۇچ 59
كوچىنىڭ 59
كىيىمىنى 59
ھەيدەۋاتىدۇ 59
ئىتتىرىپ 58
ئىشلىتىۋاتىدۇ 58
ئىچىۋاتىدۇ 58
بۆكلۈك 58
تاغدا 58
دا 58
سەكرەش 58
قاقاقلاپ 58
قىلاتتى 58
كوماندىسىنىڭ 58
مۇسابىقىگە 58
روژدېستۋو 57
سودا 57
سول 57
كىردى 57
يالاڭ 57
يۇمىلاق 57
يۈگۈرۈۋاتىدۇ 57
يەرلىك 57
ھارۋىسى 57
ئايىغى 56
ئىچتى 56
باغچىسىدا 56
تاماشا 56
تەخسىنى 56
تەرىپىدە 56
سوزۇپ 56
قىشلىق 56
قىلىۋاتقان 56
كۈمۈش 56
ۋاتقان 56
ئادەمگە 55
ئارتىۋالغان 55
ئاپئاق 55
ئېيتىۋاتىدۇ 55
قۇتقۇزۇش 55
كەلدى 55
چامباشچىلىق 55
گالىستۇك 55
ئوڭ 54
ئۆزى 54
ئۇخلاۋاتىدۇ 54
تاختىسىنى 54
دۇبۇلغا 54
رەخت 54
شەھەردە 54
قاۋاقخانىدا 54
كېلىدىغان 54
لىرىنى 54
مېترو 54
پەلەمپەي 54
چالغۇ 54
ۋاتاتتى 54
ئاشپەز 53
ئاپپارات 53
ئورۇنلاۋاتىدۇ 53
ئورۇنلىدى 53
ئۇخلىدى 53
ئەنئەنىۋى 53
بەلگە 53
تېز 53
تەكشۈردى 53
تەييارلاۋاتىدۇ 53
كارىۋاتتا 53
كىشىلىرى 53
مۇزىكانت 53
ئۆتۈك 52
توپچى 52
تەرەپ 52
دۇكىنىدا 52
دۇكىنىنىڭ 52
ش 52
قورغان 52
قىلىدىغان 52
كۆرگىلى 52
لىرى 52
مارافونچە 52
ماشىنىدا 52
نەرسىگە 52
پىرىستاندا 52
چاپما 52
ھەممىسى 52
ئاپتوماتىك 51
ئەمدىلا 51
بالىغا 51
بەدىنىگە 51
تۇلۇم 51
تەرەپكە 51
كۆرىدۇ 51
كۆزىنى 51
لارنى 51
لى@@ 51
نومۇرلۇق 51
چۆپ 51
ۋېلىسىپىتنىڭ 51
ئايالغا 50
ئىنتايىن 50
تور 50
تى@@ 50
تەكشۈرۈۋاتىدۇ 50
دەل 50
سومكىسىنى 50
سىنىڭ 50
قاراڭغۇ 50
قولۋاق 50
كۆڭۈل 50
يۇقىرى 50
گىمناستىكا 50
ئايالنى 49
ئوينايدىغان 49
ئۇلارغا 49
بىرىگە 49
بېتون 49
تاشلاپ 49
شىلەپە 49
فونتان 49
قاچا 49
كېتىۋاتقان 49
لىك 49
موتوسىكلىت 49
نامايەن 49
يىقىلىپ 49
ھۇزۇرلىنىۋاتىدۇ 49
ھېلىقى 49
ئەركەك 48
ت 48
تورت 48
خالتىنى 48
خۇرۇم 48
دەرەخنىڭ 48
سايە 48
قۇش 48
قېيىق 48
يىغىلىشتا 48
پاراڭلىشىۋاتاتتى 48
چىشلىۋالغان 48
ھىندىستانلىق 48
ھەيكەل 48
ۋېلىسىپىتىنى 48
ئىچىگە 47
ئېگىپ 47
بالىسىنى 47
ر 47
ساتىدۇ 47
سۈرەتتە 47
سېلىپ 47
شنى 47
قىزنى 47
قىلىش 47
قەھۋە 47
كالتەكنى 47
نەچچەيلەن 47
گولف 47
ئادەمنى 46
ئاچتى 46
ئەتراپىغا 46
باردى 46
بارمىقىنى 46
بازىرىدا 46
تاشقا 46
توختىدى 46
جىسىمنى 46
رەت 46
شار 46
يولى 46
چېلەك 46
ھەرىكىتى 46
ئاشخانىنىڭ 45
ئاپتوبۇس 45
ئولتۇرغاندا 45
ئوينايدۇ 45
ئىككىسى 45
ئۈستەلگە 45
ئېسىپ 45
ئەگىشىپ 45
بايراق 45
توختاپ 45
تىجارەتچى 45
جەريانىدا 45
دېڭىزدا 45
رەسىمى 45
غەلىتە 45
ماسكا 45
مەكتەپ 45
نۇر 45
ۋېلىسىپىتنى 45
ئارىسىدىكى 44
ئاشخانىدىكى 44
ئاغزىنى 44
ئوخشايدىغان 44
ئىگىلىك 44
ئۈستەلنى 44
تېپىۋاتىدۇ 44
خادىمى 44
سۈرىتى 44
فوتوگراف 44
كۆرگەزمە 44
مەدەتچىلەر 44
مەينەت 44
ئوقۇغۇچىلار 43
ئېچىپ 43
بېسىلغان 43
بەدەن 43
بەھرىمەن 43
تېيىلىپ 43
دوقمۇشىدا 43
دى@@ 43
رەڭلەر 43
سۆرەپ 43
قاتناشقان 43
كىيىنگەن 43
كەلگەن 43
پۈۋلەۋاتىدۇ 43
ئاتقۇچى 42
ئايروپىلان 42
ئورالغان 42
ئويناپ 42
ئىككىيلەن 42
تىزىلغان 42
تىن 42
تىڭشىغۇچ 42
خادا 42
سىزدى 42
كۆرۈۋاتاتتى 42
مەشغۇلات 42
ئورۇندۇق 41
ئورۇندۇقىدا 41
تىزلاندى 41
تېلېكامېراغا 41
جايدا 41
قانچە 41
قوبۇل 41
كۆۋرۈك 41
ماشىنىسىنى 41
مۈرىسىگە 41
ياسىدى 41
ياپيېشىل 41
ئويۇنچۇقنى 40
ئۇخلاپ 40
ئۇچۇپ 40
ئېتىراز 40
ئەزالىرى 40
تۇتاش 40
تېيىز 40
دۇربۇن 40
سارىيىدا 40
سىدىن 40
سىرتىغا 40
قورشالغان 40
كىر 40
مۇمكىن 40
ناخشىچى 40
يۈدۈۋالغان 40
يېنىغا 40
يەڭلىك 40
پۇتبولنى 40
چېدىر 40
ئاسماندا 39
ئاچ 39
ئۆرۈمە 39
توك 39
خۇددى 39
دەريادا 39
رايوندا 39
زەيتۇن 39
سۆيۈشتى 39
غالتەكلىك 39
قورال 39
قوش 39
قىلغۇچى 39
كۈلرەڭ 39
مۇزاكىرە 39
مەيدانىدىكى 39
يۇيۇش 39
يېقىنلاشتى 39
پالاق 39
چاڭ 39
چوققىسىدا 39
چېكىۋاتىدۇ 39
گاز 39
ئاڭلاۋاتىدۇ 38
ئۆز 38
تاق 38
جابدۇقى 38
سوغۇق 38
سى@@ 38
شېغىل 38
شەرق 38
كوماندا 38
كىنى 38
كېسىۋاتىدۇ 38
لارنىڭ 38
لېنتا 38
ن@@ 38
نامايىش 38
نامايىشچىلار 38
پ 38
چىشى 38
چىگىۋالغان 38
گىلەم 38
ھەم 38
ئاپپاراتنى 37
ئۇسسۇلچى 37
ئەدىيال 37
باغلاپ 37
بالىسى 37
بالېت 37
تاختاي 37
تۆمۈر 37
تۇغۇلغان 37
شىنى 37
غەۋۋاسلىق 37
قىلغاندا 37
كۈنى 37
كېچىلىكىدە 37
لەرنى 37
يامغۇردا 37
يورۇق 37
يەتتە 37
يەيدۇ 37
چاچلىرى 37
چېنىقىش 37
چەمبىرەك 37
گارغا 37
گۇمپىسى 37
ئىشلەيدۇ 36
ئۇسسۇلى 36
بولكا 36
بولۇشى 36
بۇرۇن 36
بەدىنى 36
تارتىپ 36
تى 36
ساتىدىغان 36
قاتنىشىۋاتىدۇ 36
قويۇلغانىدى 36
قېتىملىق 36
كېلىنچەك 36
كەسپىي 36
مەنزىرىسى 36
ياتقان 36
ياتقۇزۇلغان 36
ياشىنىپ 36
يۈز 36
يۈگۈرگۈچى 36
يېنىك 36
ھارۋىسىدا 36
ھۆل 36
ھەرىكەت 36
ئاپتوبۇستا 35
ئىش 35
ئۆزىنى 35
ئۈچەيلەن 35
ئېسىلىپ 35
ئەتراپتىكى 35
بۇقا 35
توختىتىپ 35
توزان 35
رېپىر 35
سىر 35
سېۋەت 35
شۇ 35
قىنى 35
قۇچاقلىۋالدى 35
كاۋاپداندا 35
ل 35
ل@@ 35
مامۇقتەك 35
موللاق 35
مىكروسكوپ 35
ىدىن 35
يوق 35
يۇقىرىغا 35
پۇتىدا 35
پەرۋاز 35
گۈرجەك 35
ئاشخانا 34
ئېتىش 34
بايرىقى 34
بايرىقىنى 34
بوتۇلكا 34
بىلدۈردى 34
بۈدۈر 34
بېشىدا 34
ت@@ 34
تاقىر 34
تۆۋەنگە 34
دېڭىزغا 34
ساھىلى 34
سىنىپتا 34
قورام 34
كېچەك 34
كە 34
كەڭ 34
مۇسابىقىلىشىدۇ 34
نىقاب 34
نۇتۇق 34
نەق 34
پايپاق 34
چەت 34
ھەييار 34
ئارتىسى 33
ئىكەن 33
ئۆتىدۇ 33
باشقىلارنىڭ 33
بوكس 33
بېكىتىدە 33
بەلكىم 33
ترامپولىن 33
تەرىپىگە 33
جايدىكى 33
دولقۇنىدا 33
سىدىكى 33
سېتىش 33
غاندا 33
قانداق 33
قويۇۋاتىدۇ 33
كارىدوردا 33
كىنىڭ 33
لىدى 33
ماشىنىنى 33
مېترودا 33
ىدىغان 33
ياسانغان 33
يايما 33
ڭ 33
ھاسا 33
ئاۋاز 32
ئاۋازلىق 32
ئورمانلىقنى 32
ئوقۇۋاتىدۇ 32
ئىتتىردى 32
ئىشلەۋاتىدۇ 32
ئۇچتى 32
ئۈستىلىنىڭ 32
ئەڭ 32
توپىغا 32
تۇتۇشۇپ 32
تەنھەرىكەتچى 32
جىددىي 32
خادىملىرى 32
سىزىلغان 32
سېتىۋاتىدۇ 32
شەھەردىكى 32
قاتناش 32
كى 32
كۆزىتىۋاتىدۇ 32
لەرنىڭ 32
م 32
ماشىنىسىغا 32
نى@@ 32
ىدۇ 32
يا@@ 32
يىراققا 32
چاڭغا 32
چوڭقۇر 32
چى@@ 32
چىنىڭ 32
چىڭ 32
چۈشلۈك 32
ئالغان 31
ئۆگزىدە 31
ئۇرۇشقا 31
ئۈستىلى 31
ئەينەككە 31
بەزىلىرى 31
تاختىپەر 31
توغرا 31
تەرەپنىڭ 31
دوستى 31
دەرىخى 31
سىز 31
غان 31
ق 31
قوغلىدى 31
قى 31
كاكى 31
كالتىكىنى 31
كاناي 31
كاۋاپ 31
كۆرۈشتى 31
كۆڭلىكى 31
كېچىدە 31
مىكروفوننى 31
مەيدانى 31
ن 31
يامغۇرلۇق 31
يۈزى 31
پەسكە 31
چىش 31
ھەشەمەتلىك 31
ۋېلسىپىت 31
ئارغامچىنى 30
ئالىدۇ 30
ئايىغىنى 30
ئىتقا 30
ئۆسمۈر 30
ئۇخلاش 30
ئۇرۇنۇۋاتىدۇ 30
ئېتىشقا 30
ئېتىلدى 30
ئەزاسى 30
بۇنىڭ 30
بەلباغ 30
توسۇۋالدى 30
تىنى 30
تە 30
ساياھەتچى 30
سوزدى 30
سەھنىدىكى 30
شقا 30
كىشىلىك 30
كۆرۈنۈشتىكى 30
كۆۋرۈكتىن 30
لدى 30
لەر 30
مۈشۈك 30
مەنزىرە 30
مەيدانىنىڭ 30
يۇمشاق 30
يەتكەنلەر 30
پۇتىغا 30
پەلەمپەيگە 30
چالغۇچى 30
چاپىنى 30
چىملىق 30
چە 30
گىرىم 30
گۆش 30
ئاسمان 29
ئۇرۇشتى 29
ئۈچىنچى 29
ئېتىزدا 29
ئەسكەر 29
تامىقى 29
توقۇلما 29
تولدى 29
تىزلىنىپ 29
تەتۈر 29
تەڭپۇڭلۇقنى 29
خالتىسىنى 29
دەرەخكە 29
راھەت 29
ساقلىدى 29
شتىن 29
شكە 29
شىغا 29
قارىغا 29
قۇپقۇرۇق 29
قەھۋەخانىدا 29
ك 29
كومپيۇتېردا 29
كونترول 29
كوچىغا 29
كۆرسىتىپ 29
كۆلچىكىنىڭ 29
كۇنۇپكا 29
لىرىنىڭ 29
لېكىن 29
ماشىنىغا 29
ماقچى 29
مىنىدۇ 29
مۇسابىقىلىشىۋاتىدۇ 29
يالغان 29
پول 29
چىققان 29
چىقىرىۋاتىدۇ 29
چېكىلگەن 29
گۈللۈكتە 29
ھۇزۇرلاندى 29
ۋالغان 29
؛ 28
ئاخىرقى 28
ئامېرىكىنىڭ 28
ئورمانلىق 28
ئىشارىتى 28
ئىشلىتىدۇ 28
ئۆتكەن 28
ئۆسمۈرلەر 28
ئېيتىپ 28
ئەتراپى 28
بىرىنىڭ 28
بۇيۇملىرى 28
تىكى 28
تىنچ 28
تۈكلۈك 28
تېلېفوندا 28
تەشكىللەنگەن 28
جابدۇقلىرىنى 28
دېرىزىدىن 28
رېشاتكىدىن 28
رېشاتكىغا 28
ساقلاش 28
ساكس 28
سىم 28
سۇپىسىدا 28
شۇنىڭ 28
فارفور 28
قان 28
قولياغلىق 28
قىغا 28
قىلىشقا 28
ك@@ 28
كەچلىك 28
ماس 28
مەھسۇلاتلىرى 28
ىدىكى 28
ياتاق 28
يولىغا 28
چاق 28
چىرىغى 28
ۋاتقانلىقىنى 28
ئازراق 27
ئوپېراتسىيە 27
ئۆتكۈزدى 27
ئۆسۈملۈك 27
ئۆمىلەپ 27
بۇرۇلۇپ 27
تاختىنى 27
تازىلىدى 27
تامدىن 27
تىلىنى 27
تۇتۇۋاتىدۇ 27
ساقاللىق 27
سىغا 27
سۇدىكى 27
فونتاندا 27
قاتتىق 27
قىزغا 27
كالا 27
كولاۋاتىدۇ 27
كىيىدۇ 27
كېتىۋاتقاندا 27
لارغا 27
ما 27
ماقتا 27
مى@@ 27
مەكتە 27
نەم 27
ى 27
يولىدىن 27
يوپۇرماقلىرى 27
پاراشوت 27
پويىزدا 27
چۈشكەن 27
چېلىۋاتقان 27
چېۋە 27
گارمون 27
ۋاتقاندەك 27
ئوقۇغۇچى 26
ئىزدەۋاتىدۇ 26
ئىمارەت 26
ئىچ 26
ئۇ@@ 26
ئېسىقلىق 26
ئېچىش 26
ئەسكەرلەر 26
بايرىمى 26
بويۇن 26
بىرىنى 26
بىلىكى 26
بېزەلگەن 26
تاسما 26
تاشنىڭ 26
تىقتى 26
تۇرۇبا 26
تەييارلىدى 26
تەپتى 26
دا@@ 26
دۇكىنى 26
را@@ 26
سىياقىدا 26
سۇندى 26
سۇنى 26
شەيتانلىق 26
غۇۋا 26
فورمىسى 26
قاراۋاتاتتى 26
قارماق 26
قۇتا 26
قۇچاقلاشتى 26
قەلەم 26
كوچىلىرىنى 26
كىيىملەرنى 26
كىيىۋالغانىدى 26
كۆرۈپ 26
لى 26
لەرگە 26
مۈگدەپ 26
ياتىدۇ 26
ياشانغانلار 26
يولنىڭ 26
يەردىكى 26
چىراي 26
چىلىق 26
( 25
) 25
ئاتا 25
ئايلانما 25
ئۇرۇپ 25
ئېغىر 25
ئېلىشىپ 25
بايراقنى 25
بوش 25
بىنادىن 25
بېشىدىن 25
تايىنىپ 25
توسۇشقا 25
تەنھەرىكەتچىسىنىڭ 25
خوتۇن 25
دادا 25
دى 25
دە 25
دەرەختە 25
رى 25
رەسمىي 25
رەڭدە 25
س@@ 25
ساندۇق 25
ساياھەتچىلەر 25
سۈرتتى 25
سۈرىتىنى 25
سېتىۋالىدۇ 25
شاھمات 25
شى 25
قاپچۇقى 25
قىيا 25
كارنىۋال 25
لاۋاتىدۇ 25
نېمە 25
يىپ 25
يېمەكلىكنى 25
پاتقاق 25
پاشنىلىق 25
پالما 25
پۇتلۇق 25
ژۇرنال 25
ھەيدىدى 25
ئاتنىڭ 24
ئورنىدىن 24
ئولىمپىك 24
ئىتتىرىۋاتاتتى 24
ئىتىنى 24
ئۆيدىكى 24
ئۆيگە 24
ئۇچقاندەك 24
ئېلىۋالغان 24
باشلىدى 24
بولقا 24
بى@@ 24
بىنادا 24
تاش@@ 24
تاشلىدى 24
تامدىكى 24
تىرەپ 24
تۈرلۈك 24
تېرىسى 24
تەركىب 24
جىسىم 24
جىنسلىرىنىڭ 24
دېرىزىسىدىن 24
رى@@ 24
رېشاتكىنىڭ 24
زەنجىر 24
ساقىلىنى 24
سىلىدى 24
ش@@ 24
شوتىدا 24
شى@@ 24
قا 24
قولىدىكى 24
قى@@ 24
قۇ@@ 24
كا 24
كىتابنى 24
كىشىلەرگە 24
ما@@ 24
ماڭغان 24
مۇراسىم 24
مەركىزىدە 24
مەھسۇلاتلىرىنى 24
ي@@ 24
ياۋا 24
يولۇچىلار 24
پ@@ 24
پاسوندىكى 24
پاكار 24
پۇت 24
چاۋاك 24
چىغ 24
گېرمانىيە 24
ئاتلاپ 23
ئارىلاش 23
ئاقارغان 23
ئىچىۋاتاتتى 23
ئېگىزدىن 23
بالىلارنىڭ 23
بىناسىنىڭ 23
تاختاينى 23
تارتىۋاتاتتى 23
تاپقان 23
تىدىن 23
تىرىشىپ 23
تۈگۈلۈپ 23
تەبرىكلىدى 23
تەنھا 23
خالتىسى 23
د@@ 23
دانە 23
س 23
سىناپ 23
سىگە 23
سۈرەت 23
سېتىۋالدى 23
سېرىك 23
سېلىنغان 23
سېلىۋاتىدۇ 23
سەنئەتكار 23
شىگە 23
قىلدۇردى 23
كۆزلۈك 23
كۈتتى 23
كۈلۈمسىرىگەن 23
لاپ 23
لۆڭگە 23
لۇق 23
مىلىچ 23
مىنى 23
مەشنىڭ 23
مەن 23
مەيداندىكى 23
نومۇر 23
نىنى 23
نەي 23
يۈرۈش 23
يۈرۈشلۈك 23
يۈزىدىكى 23
يېمەكلىكلەرنى 23
پىئانىنو 23
چاتقاللىق 23
ھاياجانلانغان 23
ۋىۋىسكا 23
ئاز 22
ئالما 22
ئاڭلىدى 22
ئاۋات 22
ئوق 22
ئويۇنىدا 22
ئۇچۇۋاتىدۇ 22
ئۈزىۋاتىدۇ 22
ئېلىشقا 22
ئېيتىۋاتاتتى 22
بۇرۇلدى 22
بېسىپ 22
بېشى 22
بېقىۋاتىدۇ 22
تارتى@@ 22
تاغلىق 22
تاماشىبىنلارغا 22
تولغانما 22
تولۇق 22
توپىلىق 22
تېلېفونىنى 22
دىققەت 22
دۈمبىسىنى 22
ر@@ 22
رەسىمىنى 22
زالدا 22
ساھىلىنى 22
سىمان 22
سەككىز 22
قىزىقارلىق 22
قىسمى 22
قەدىمىي 22
كىدىن 22
كۆرۈنۈشكە 22
لاردىن 22
ماگىزىندا 22
ماھارىتىنى 22
مۈرىسىدە 22
ياردەملىشىپ 22
يانمۇيان 22
يايمىسىنىڭ 22
يىراقتىكى 22
يۈگۈرۈۋاتقان 22
پائالىيەتتە 22
پالىقىنى 22
چالىدىغان 22
چى 22
چىقىۋاتاتتى 22
چۈشكەندە 22
چېلىشىش 22
چەكمىسى 22
ھاسىغا 22
ھەرە 22
ھەيكىلى 22
ۋاتقاندا 22
ۋېلىسىپىتى 22
ئاتنى 21
ئارىدا 21
ئايلىنىپ 21
ئورىۋالدى 21
ئويۇنىنى 21
ئۆتكەندە 21
ئۆتۈۋاتىدۇ 21
ئۇخلاۋاتقان 21
ئەگەشتۈرۈپ 21
با@@ 21
بازار 21
باشلىقى 21
بەدىنىنى 21
تامنى 21
تىزىلدى 21
تۇ@@ 21
تۇتۇ@@ 21
تەجرىبە 21
رنىڭ 21
رېلىس 21
رەسىمنى 21
سا@@ 21
سوقۇلۇپ 21
قارتا 21
قارىغاندا 21
قالايمىقان 21
قوناق 21
قىلىنغان 21
قىلىچۋازلىق 21
قۇرۇلما 21
قەغەزنى 21
كولباسا 21
كۆرگۈچىلەر 21
كۆرۈنەتتى 21
كۆلچەكتە 21
كۆينىكى 21
كېچى@@ 21
كېچىلىكى 21
كەستى 21
لەگلەك 21
ماشىنىسىدىن 21
ماي 21
ماڭىدۇ 21
نائۇشنىك 21
نىمچە 21
ياغقان 21
يامغۇر 21
يولىنىڭ 21
يولۇچى 21
يوپكىسى 21
يوپۇرماقلىرىنى 21
يۆنىلىشكە 21
يۇمۇپ 21
يەلكەنلىك 21
يەپ 21
پات 21
پولات 21
پىرىستان 21
چانا 21
چاچراپ 21
چوڭراق 21
چەكتى 21
ھارۋىسىغا 21
ھويلىدىكى 21
ھۆججەت 21
ئا@@ 20
ئارمىيە 20
ئىس 20
ئۈستىلىدە 20
ئۈستەلدە 20
ئەركىن 20
بېرى@@ 20
بېزەك 20
تاقىرباش 20
تاللا 20
تامنىڭ 20
تو@@ 20
تىكىش 20
تىۋىتلىق 20
تۇتۇشقا 20
تۈر@@ 20
تۈۋرۈككە 20
تېلېفونغا 20
خەۋەر 20
دىققىتى 20
رېزىنكە 20
سۇدىن 20
شا@@ 20
شارى 20
ق@@ 20
قاشا 20
قورغانغا 20
قوشۇق 20
قوغدىنىش 20
قىنىڭ 20
قۇملۇق 20
قېلىن 20
كنى 20
كىرىش 20
كىيىنىۋالغان 20
كۈنلەردە 20
كۈچ 20
كېمىگە 20
كەمپۈت 20
لا@@ 20
لاش 20
ماركىلىق 20
ماڭماقتا 20
ماگىزىننىڭ 20
مودا 20
موماي 20
مەيدانىغا 20
ننىڭ 20
يا 20
يازدى 20
يۇڭ 20
يۈرەك 20
يېزىۋاتىدۇ 20
پا@@ 20
پالاس 20
پويىزنىڭ 20
پى@@ 20
چىسى 20
چۈشۈرۈلگەن 20
چېچى 20
ھوزۇرلاندى 20
ۋەتتى 20
ئات@@ 19
ئازگىلىدا 19
ئاستى 19
ئاستىغا 19
ئاشخانىسىدا 19
ئاغزىغا 19
ئال@@ 19
ئالدىدىن 19
ئاپتاپقا 19
ئاچا 19
ئوقۇش 19
ئوماق 19
ئويناۋاتقانلىقىنى 19
ئىشخانىدا 19
ئىپادىسى 19
ئىچكى 19
ئىچكەچ 19
ئىچى 19
ئۆتمەكتە 19
ئۆتىۋاتىدۇ 19
ئۇرۇش 19
ئۇچۇر 19
ئۈنچە 19
ئېچىلغان 19
ئېڭىشىپ 19
بالىلارغا 19
بىرلا 19
بې@@ 19
تا 19
تا@@ 19
تارلىق 19
تازىلىق 19
تاشلىۋەتتى 19
توپچىسى 19
تىۋاتىدۇ 19
خېرىدارلار 19
داۋالاش 19
رايونىغا 19
رېشاتكىنى 19
ز 19
ساندۋىچ 19
ساپال 19
سىلاۋاتىدۇ 19
سۈركىدى 19
سۈيى 19
سېلى@@ 19
قاتلىما 19
قاي@@ 19
قاپ@@ 19
قنى 19
قوي 19
قىستۇرۇلغان 19
قىشتا 19
قىلماقتا 19
كالتىكى 19
كو@@ 19
كى@@ 19
كىشىنى 19
كۆتۈرۈلدى 19
كۆرىدىغان 19
كۆۋرۈكتە 19
كۈندۈزى 19
كۈچى 19
لغان 19
لەيلىمە 19
ماھارىتى 19
مىنىش 19
مۇ 19
مۇنبەردە 19
مەركىزىدىكى 19
ىدە 19
ياقىلىق 19
يولغا 19
يۇيىۋاتىدۇ 19
پىشۇرۇۋاتىدۇ 19
پۇلاڭلىتىپ 19
پەقەت 19
چىرايىدا 19
ھاۋادا 19
ۋاراتار 19
ۋالدى 19
ئاپتوموبىلىنى 18
ئورنى 18
ئورۇندۇققا 18
ئورۇندۇقنىڭ 18
ئويناشقا 18
ئىستاكاننى 18
ئىچىپ 18
ئۆزلىرىنىڭ 18
ئۇسلۇبىدىكى 18
ئېتى@@ 18
ئېتىلىپ 18
ئېشىپ 18
ئېغىز 18
ب@@ 18
بار@@ 18
باغرىدا 18
بور 18
بوينىغا 18
توسالغۇدىن 18
توقۇۋاتىدۇ 18
توپقا 18
تۇخۇم 18
تېخىمۇ 18
تېلېۋىزور 18
تېيىلىۋاتقان 18
تەنھەرىكەتچىلىرى 18
جازىسى 18
دوختۇر 18
دوستلار 18
دۈمبىسىگە 18
دې@@ 18
دېھقانچىلىق 18
دەسسەپ 18
زىغىر 18
سالقىن 18
سان 18
ساندۇقىنى 18
سۈپۈرگە 18
شام 18
قاردىن 18
قامەتلىك 18
قوشۇنى 18
قوغلاپ 18
قىرغاقتا 18
قىزغىن 18
قىزى 18
قۇرۇلۇشنى 18
كورپۇس 18
كىسى 18
كۆرگەن 18
كۈلدى 18
كې@@ 18
كېتىپ 18
لانغان 18
لوزۇنكا 18
ماڭغاندا 18
مۇ@@ 18
مۇداپىئە 18
مۇسابىقىنى 18
نىنىڭ 18
يامىشىش 18
يانتۇلۇقتا 18
يى@@ 18
يىغىش 18
يىغىلىشىدا 18
يىغىن 18
يۈكۈنۈپ 18
يەڭسىز 18
پىچاق 18
پەيدا 18
چاچتى 18
چىقىش 18
چىملىقنى 18
چىنى 18
ۋاقتىدا 18
-@@ 17
bmx 17
ئاپتوبۇسنىڭ 17
ئوغلى 17
ئوقۇغۇچىلىرى 17
ئوينىغاندا 17
ئىس@@ 17
ئىشارىسى 17
ئۆتۈشنى 17
ئۆزگىچە 17
ئۇدۇلىدا 17
ئۈزدى 17
ئېسىل 17
ئېغىزىدا 17
ئېلىشتى 17
ئەسلى 17
باقتى 17
بوشلۇقتىكى 17
بىز 17
بېلىقنى 17
تاختىسىدىكى 17
تاشلاۋاتىدۇ 17
تاقىۋاپتۇ 17
تنىڭ 17
تورى 17
تىز@@ 17
تىنىڭ 17
تۇرۇۋاتىدۇ 17
تۈگمىلىك 17
تېلېكامېرا 17
خىزمەتچىسى 17
دۇكىنىدىن 17
دەك 17
رەڭدار 17
ز@@ 17
ساقچىلار 17
سال 17
ساھىلىغا 17
سورۇندا 17
سومكىسى 17
سومكىنى 17
سىدە 17
سۈرئەتلىك 17
سېرك 17
غاچ 17
قا@@ 17
قاپچۇقىنى 17
قىر@@ 17
كوللېكتىپ 17
كىسىنى 17
كىگە 17
كۆزەينىكى 17
كۆلدە 17
كۆلگە 17
كۈتمەكتە 17
كۈچۈكنى 17
كەپتەر 17
لا 17
لگەن 17
لەيدۇ 17
م@@ 17
ماشىنىدىن 17
ماگىزىن 17
موخوك 17
مەرۋايىت 17
ياغاچنى 17
ياماشقۇچى 17
يايمىسىدا 17
يۈزىدىن 17
يېپىنچا 17
يەۋاتاتتى 17
پىسا 17
چاقناپ 17
چىپ 17
چېلەكنى 17
چەككەن 17
گ@@ 17
گەندە 17
ھۈنەر 17
ھەممە 17
ۋارتاغا 17
atv 16
ئاپتوبۇسى 16
ئوتتۇرىسىدىكى 16
ئوڭدىسىغا 16
ئىشلارنى 16
ئۆمىكى 16
ئۇپۇق 16
ئۈزۈم 16
ئېكرانىغا 16
ئېلىشىش 16
ئەترىتىدە 16
ئەگرى 16
ئەگمە 16
باغچىنىڭ 16
بوتۇلكىسى 16
بويىغا 16
بىناغا 16
بۆك 16
بۇيۇمى 16
بەلگىسىنى 16
تاختىسىدىن 16
تارت@@ 16
تاغدىكى 16
تاغلار 16
تاماشىبىنلارنىڭ 16
تاۋار 16
تنى 16
تىپ 16
تۇتۇش 16
تۇرغۇچىلار 16
تۈز 16
تې@@ 16
تەرەپتە 16
جابدۇقلىرى 16
دەرس 16
دەستە 16
دەم 16
رايونىنى 16
رغا 16
رو@@ 16
ساقلىنىش 16
ساندۇقى 16
سۈرئەتتە 16
سېغىز 16
سېمىز 16
سەھنىسىدە 16
شارنى 16
قارىشى 16
قازان 16
قىدا 16
قىستىلىشىپ 16
قىلىشنى 16
قىلىچ 16
قۇتىنى 16
قەغەزگە 16
كىيدى 16
كۆتۈرۈۋاپتۇ 16
كېيىنكى 16
كېچىپ 16
كەل@@ 16
كەن 16
لاشقا 16
لاندى 16
لىرىغا 16
لىنىڭ 16
لەش 16
لەۋاتىدۇ 16
ماگىزىندىن 16
مۇسابىقىسىنىڭ 16
مېھمانخانىدا 16
مەزگىلىدە 16
مەستانىلىرى 16
مەكچى 16
مەيدانىدىن 16
مەيدانىنى 16
نو@@ 16
ىدا 16
ي 16
يىراقتا 16
يىرىك 16
يىغلاۋاتىدۇ 16
يىغىلىش 16
يىغىنىدا 16
يۈگۈرەيدۇ 16
پاتقاقتا 16
پاراخوت 16
پاس 16
پەلەمپەينىڭ 16
چوڭلار 16
چىرايىدىن 16
چىشلىۋالغانىدى 16
چۈشۈشكە 16
چەمبىرىكى 16
گۇگۇم 16
گۈللەر 16
ھارۋىنى 16
ھالىدىن 16
ھايۋان 16
ھايۋاننى 16
ھەيكەلنىڭ 16
ئارغامچىغا 15
ئاسىيالىقلار 15
ئافرىقا 15
ئالاقە 15
ئامانلىق 15
ئايرىلدى 15
ئو@@ 15
ئى@@ 15
ئىمارەتلەر 15
ئۇر@@ 15
ئۇسسۇلچىلار 15
ئې@@ 15
ئېرى@@ 15
باراقسان 15
بالون 15
بايرىمىدا 15
بوشلۇقىدا 15
بوغۇۋالغان 15
بولىدىغان 15
بولۇۋاتىدۇ 15
بويلۇق 15
بىلدۈرۈش 15
بىلىكىگە 15
بىليارت 15
بۇر@@ 15
بېلىقچى 15
تاتلىق 15
توسۇ@@ 15
تىش 15
تىنچلىق 15
تۆكتى 15
تۇتۇق 15
تېرىۋاتىدۇ 15
تېننىس 15
تېيىلغاندا 15
تەرەپتىكى 15
تەكشى 15
تەپسىلىي 15
جى@@ 15
جۇڭگو 15
خادىملار 15
خالات 15
خىزمەتچى 15
د 15
داشۆ 15
دوستلىرى 15
دوستىنىڭ 15
دۇكاندا 15
رايونىدىكى 15
سوۋغاتنى 15
سىدا 15
سىرتقى 15
سىزى@@ 15
سىنىپتىكى 15
سۆزلەۋاتاتتى 15
سۈت 15
سۈركەلگەن 15
سې@@ 15
شوپۇر 15
قاق@@ 15
قاچىلاۋاتىدۇ 15
قوغ@@ 15
قوماندانلىق 15
قويۇلدى 15
قىدىكى 15
قىرغىقىدا 15
قىلىۋاتقانلىقىنى 15
قۇرۇلۇشتىن 15
قۇمغا 15
قۇچاقلىشىپ 15
كامېرا 15
كىتاب@@ 15
كىر@@ 15
كىرىپ 15
كۆتۈرگەن 15
كۆرۈۋاتقان 15
كۆزى 15
كۆزەتتى 15
كېسى@@ 15
كېپىنەك 15
لىكى 15
لىنىپ 15
مار@@ 15
ماھىر 15
مۇراسىمىدا 15
مۇسابىقىسىنى 15
مۇكاپات 15
نىدا 15
نيۇ 15
نېئون 15
ياستۇق 15
يان@@ 15
يانچە 15
يوغان 15
يۈزىنىڭ 15
يۈگۈرۈۋاتاتتى 15
پائالىيەت 15
پاسونى 15
پالىقى 15
چا@@ 15
چاي 15
چىپار 15
چې@@ 15
چېدىردا 15
ھارۋىسىنىڭ 15
ھەيران 15
ۇپ 15
ئاتلېتىكا 14
ئادەملەر 14
ئاغزى 14
ئالغا 14
ئوخشىمىغان 14
ئورۇش 14
ئورۇندا 14
ئورۇندۇقتىن 14
ئورۇنلايدۇ 14
ئورەك 14
ئوقۇدى 14
ئوقۇۋاتاتتى 14
ئويناۋاتقاندا 14
ئويۇنچۇقىنى 14
ئىجاد 14
ئىجتىمائىي 14
ئىلمە 14
ئۆسۈملۈكلەر 14
ئۆچكە 14
ئۆچۈرگۈچى 14
ئۇرىۋاتىدۇ 14
ئۇچىۋاتىدۇ 14
ئۈزۈپ 14
ئېرىشتى 14
ئېچىۋاتىدۇ 14
ئەل 14
بالكوندا 14
بول@@ 14
بىرىنچى 14
بۆلەك 14
بۇ@@ 14
بۇرنىنى 14
بۇقىنى 14
بۇلۇت 14
بۇلۇتلۇق 14
بۈك 14
بېرىلىۋاتىدۇ 14
بەرگەن 14
تاختىسىغا 14
تاشقىرى 14
تاشيول 14
تتى 14
توخۇ 14
توپچىنى 14
تۇتقۇچى 14
تەنتەنە 14
جىسىمغا 14
جىلىتكىسى 14
خانىسىدا 14
خى@@ 14
خېرىدار 14
دولقۇنىغا 14
رايونى 14
راپ 14
رەڭدىكى 14
زىنى 14
ساتتى 14
ساقلاپ 14
سايىسىدا 14
سولغا 14
سۈزۈك 14
سۈمۈرگۈچ 14
سەنئەتكارى 14
شار@@ 14
شوتا 14
شىددەتلىك 14
غۇچ 14
غۇچى 14
قتا 14
قنىڭ 14
قىلىشى 14
قۇتىسى 14
قۇلاق 14
كا@@ 14
كامېراغا 14
كىغا 14
كۇلۇبتا 14
كۈ@@ 14
كېتىۋاتقانلىقىنى 14
كېتىۋېتىپ 14
لوندون 14
لۇ@@ 14
لەنگەن 14
لەپ 14
مارجان 14
مو@@ 14
مودېل 14
مىسى 14
مىسىنى 14
مىلتىق 14
مۇئەللىم 14
مۇسابىقىلەشتى 14
نىغا 14
نىقابى 14
نې@@ 14
نەرسىلەرگە 14
ياتتى 14
ياردىن 14
يارغا 14
ياسىنىپ 14
ياشنىڭ 14
يورك 14
يىراقلارغا 14
يېزىلغانىدى 14
يەردىن 14
پائالىيىتىدە 14
پائالىيىتىگە 14
پىشۇردى 14
پۇكەينىڭ 14
پۈركۈش 14
پې@@ 14
چىقىشقا 14
چۈشۈۋاتىدۇ 14
چېركاۋدا 14
چېچىش 14
چەك@@ 14
ھارۋىسىدىكى 14
ھالقا 14
ھەيدىگەن 14
ۋارقىراپ 14
ۋاقىت 14
ۋالىبولى 14
ۋوگزال 14
ۋېلىسىپىتتە 14
ئائىلىسىدىكىلەر 13
ئاتتىن 13
ئادەمدىن 13
ئارىلاشتۇردى 13
ئايرىم 13
ئاچ@@ 13
ئوقۇ@@ 13
ئىستاكانغا 13
ئىش@@ 13
ئۆتۈش 13
ئۆتۈۋاتاتتى 13
ئۆردەك 13
ئۆپكىسى 13
ئۇدۇلىدىكى 13
ئۇلارنى 13
ئۇچقۇچى 13
ئۈلگە 13
ئېتىۋاتاتتى 13
ئېرىنچەكلىك 13
ئېلىۋاتاتتى 13
ئېھتىرام 13
بارخانلىرى 13
بايا 13
بوۋاققا 13
بوۋاينىڭ 13
بۇيۇملىرىنى 13
تاسمىسى 13
تاشنى 13
تاكسى 13
تورىنى 13
توغرىسىدا 13
توپىنى 13
تىدىكى 13
تىزىملىكىنى 13
تىغا 13
تۆشۈك 13
تۇت@@ 13
تۇرۇشقا 13
تۈتەك 13
تېرى@@ 13
تېرە 13
تەتقىق 13
تەجرىبىخانىدا 13
تەخمىنەن 13
تەرىپى 13
تەگ@@ 13
جا@@ 13
جازىسىدا 13
جىلۋىلەندى 13
جىمجىت 13
جىنسلىرىدىن 13
خادىغا 13
خان 13
خانىمنىڭ 13
دادىسى 13
داڭلىق 13
دولقۇنى 13
دومىلىما 13
دۇئا 13
دەرەخنى 13
رىشاتكىدىن 13
رېشاتكىدا 13
رېلىستا 13
زالىدا 13
زى@@ 13
زىننەت 13
ساقلاۋاتاتتى 13
سال@@ 13
ساندىكى 13
سو@@ 13
سۆز@@ 13
سۆزلىدى 13
سۆزلەۋاتىدۇ 13
سە@@ 13
سەل 13
شال 13
شلانكا 13
شو@@ 13
شوتىغا 13
شەكلى 13
شەھەرگە 13
غ@@ 13
قتىن 13
قوشۇنىدا 13
قولۋاققا 13
قويغۇچى 13
قويۇشقا 13
قويۇق 13
قىدىن 13
قىرغىقى 13
قىلماقچى 13
قۇرغاق 13
قۇرۇلۇشى 13
قېيىقتا 13
قېچىپ 13
قەۋەتلىك 13
كار@@ 13
كوماندىنىڭ 13
كىرى@@ 13
كۆرسىتىۋاتاتتى 13
كۆرسىتىۋاتقان 13
كۆرۈش 13
كۆلچىكىدىن 13
كېلى@@ 13
كېلىشىنى 13
كېمىنىڭ 13
كەن@@ 13
لو@@ 13
لە@@ 13
ماتور 13
موتوسىكلىتى 13
مىز 13
مىلاد 13
مىن@@ 13
مۇلازىمەت 13
مە 13
ناملىق 13
ندا 13
ننى 13
نىدىن 13
نېمىگە 13
نەيزە 13
ياسى@@ 13
يو@@ 13
يولدىكى 13
يىراقتىن 13
يۆلەپ 13
يۈزمۇيۈز 13
يې@@ 13
يېرىپ 13
يېشى 13
پائالىيەتكە 13
پاراشو@@ 13
پارچىسى 13
پالا@@ 13
پىلاش 13
پەي@@ 13
چالغۇنى 13
چىشىنى 13
چىقىۋاتىدۇ 13
چېلىشىۋاتىدۇ 13
چېنىقىۋاتىدۇ 13
گېپىنى 13
ھامبۇرگ 13
ۈپ 13
ۋا 13
ۋا@@ 13
ۋاق 13
ۋالغانىدى 13
ۋاننىدا 13
' 12
ئارقىچە 12
ئانىسى 12
ئايلاندۇردى 12
ئايلاندۇرىۋاتىدۇ 12
ئاڭلاۋاتاتتى 12
ئورىۋالغان 12
ئويۇن@@ 12
ئىتتىرىۋاتقان 12
ئىستانسىسىدا 12
ئىسپانىيەلىك 12
ئىشى@@ 12
ئىمزا 12
ئىنچىكە 12
ئۆتمەس 12
ئۆتىدىغان 12
ئۇرۇنغان 12
ئۇرۇۋاتىدۇ 12
ئۇچ@@ 12
ئېغىزى 12
ئېقىندا 12
ئېلانى 12
ئېيتىدۇ 12
ئەترىتىدىكى 12
ئەس@@ 12
ئەي@@ 12
ب 12
بازاردىكى 12
بازارنى 12
باس 12
باشلانغۇچ 12
باشلاپ 12
باغلانغان 12
بولغاندا 12
بويى 12
بىنى 12
بېرىدۇ 12
بېرىۋاتاتتى 12
بەختلىك 12
تاختايغا 12
تاختىدا 12
تارتىۋېلىندى 12
تازى@@ 12
تاقلىرىنى 12
تال@@ 12
تاماقتىن 12
تانسا 12
تتىن 12
ترېنېرى 12
تقا 12
توساقتىن 12
توستى 12
توسۇپ 12
توقۇش 12
تون 12
توپنىڭ 12
توپچىلار 12
تىدە 12
تىزىغا 12
تىگە 12
تۇرۇبىسى 12
تېكساس 12
تېلېفوننى 12
تېمىغا 12
تەرىپىدىكى 12
تەپ@@ 12
تەڭ 12
تەڭپۇڭ 12
جۇڭگولۇق 12
جە@@ 12
جەڭ 12
خ@@ 12
خانىدا 12
خەرىتە 12
دۆڭدىن 12
دۇكان 12
دېرىزىسى 12
رام@@ 12
رايون 12
رې@@ 12
رېئاكتىپ 12
رە 12
رە@@ 12
زا@@ 12
سارىيىنىڭ 12
ساندۇقىدا 12
ساندۇقىنىڭ 12
سايمانلىرىنى 12
سۆيدى 12
سۆيۈپ 12
سېپى 12
سەپداشلىرى 12
شارقىراتما 12
شەھەرنى 12
غانلىقىنى 12
قال@@ 12
قاچىدا 12
قاچىلاش 12
قولىدىن 12
قىل@@ 12
قىياپىتىنى 12
قۇيرۇقلۇق 12
قەبىلە 12
كاۋا 12
كتىن 12
كىيىملىرىنى 12
كۆرسەت@@ 12
كۆرۈنىدىغان 12
كۆزىتىۋاتاتتى 12
كۆلچەك 12
كۆيۈۋاتقان 12
كۆڭلىكىنى 12
كۈتۈپ 12
كۈلىۋاتىدۇ 12
كۈلۈمسىرەۋاتىدۇ 12
كۈنلۈكنى 12
كېرەك 12
كەپشەرلەۋاتىدۇ 12
لىدۇ 12
لىشىپ 12
لىغا 12
لىقنى 12
لىكىدىن 12
لىكىنى 12
لىپ 12
لۈك 12
لەن@@ 12
موتسىكلىتتا 12
موزاينى 12
موم 12
مى 12
مىغا 12
مۇسابىقىدىن 12
مۇلازىم 12
مۇنچىدا 12
مۇھىتىدا 12
مەپتۇن 12
نا 12
نيۇيورك 12
نە@@ 12
نەپىس 12
ياردا 12
ياردىمىدە 12
يارىشىملىق 12
يارىلانغان 12
ياساندى 12
يوگا 12
يىقىلغان 12
يىللىق 12
يۇيۇنىۋاتىدۇ 12
يۈرگەن 12
يېپى@@ 12
پائالىيىتى 12
پالتا 12
پلاش 12
پولنى 12
پىكىر 12
پىنى 12
پۇ@@ 12
پۈتۈنلەي 12
پۈۋلەپ 12
پېشايۋاندا 12
پەر@@ 12
پەلتو 12
پەلىيى 12
پەي 12
چ@@ 12
چالغان 12
چالغۇلار 12
چوتكىلاۋاتىدۇ 12
چۈشۈۋاتاتتى 12
چېكىتلىك 12
چېچىغا 12
چەمبىرى 12
ڭ@@ 12
گىرۋەكلىك 12
گەن 12
ھۇجۇم 12
ھۈسەن 12
ھەسەن 12
ھەمراھلىقىدا 12
ۇر@@ 12
ۈشكە 12
ۋاقىتلىق 12
ۋى@@ 12
ۋېلىسىپىتكە 12
dj 11
ئاخبارات 11
ئارغامچىدا 11
ئارىسىدىن 11
ئاشخانىسىنىڭ 11
ئاككوردىيون 11
ئاي@@ 11
ئاياللارنىڭ 11
ئاياللىرى 11
ئايرودرومدا 11
ئاپتوموبىلىنىڭ 11
ئوتتۇرىدا 11
ئوتلاقتىكى 11
ئوتلاقتىن 11
ئوراپ 11
ئوقۇغۇچىسى 11
ئوكيان 11
ئوكياندا 11
ئوينى@@ 11
ئوينىغان 11
ئىتتىرىۋاتىدۇ 11
ئىزچىلار 11
ئىشىكتىن 11
ئىلگىرىلىدى 11
ئىگە 11
ئۆتكۈزۈلگەن 11
ئۆتكۈزۈۋاتىدۇ 11
ئۆتۈشكە 11
ئۆرۈلۈپ 11
ئۆل@@ 11
ئۇرغۇچى 11
ئۇششاق-چۈششەك 11
ئۇياقتىن-بۇياققا 11
ئۈسكۈنىلىرى 11
ئېغىرلىقى 11
ئېغىزىدىن 11
ئېقى@@ 11
ئېيىق 11
ئەر@@ 11
ئەردىن 11
ئەزىز 11
ئەمما 11
بارمىقى 11
بازىرىدىن 11
باغلاقلىق 11
باغچىسىدىكى 11
باغچىنى 11
بانجو 11
بايرىمىدىكى 11
بوكسچى 11
بوياق 11
بىرسى 11
بۇنى 11
بېرىشكە 11
بېرىپ 11
بېشىنىڭ 11
بېكىتىنىڭ 11
بەدىنىدە 11
بەر@@ 11
بەلگى@@ 11
تازىلاۋاتاتتى 11
تاشقى 11
تاشيولدا 11
تالىشىش 11
تاماشىبىنلارنى 11
تاۋارلارنى 11
تور@@ 11
توكلۇق 11
تۇتىۋالدى 11
تۇتۇشتى 11
تۇتۇۋېلىشقا 11
تۇرغاندا 11
تۇرغانلىقىنى 11
تۇرىۋاتىدۇ 11
تۇرۇ@@ 11
تۈ@@ 11
تېيىل@@ 11
تېپىپ 11
تېپىۋاتاتتى 11
تە@@ 11
تەبرىكلەش 11
تەك 11
تەكچىسىدە 11
تەمىن@@ 11
تەنھەرىكەتچىلەر 11
تەڭشەۋاتىدۇ 11
جاھازلىرى 11
جو@@ 11
خالتىغا 11
خىزمىتى 11
خىزمىتىنى 11
دادىسىنىڭ 11
دوست 11
دولقۇندا 11
دومىلاپ 11
دىققىتىنى 11
دېڭىزدىكى 11
دەرسخانىدا 11
دەرىخىنىڭ 11
دەريانى 11
دەرۋازا 11
دەۋر 11
ساقلاۋاتقان 11
ساقلىغۇچى 11
ساندۇقنى 11
ساندۇقىغا 11
ساھىل 11
سىز@@ 11
سىزىق 11
سىيرىلغۇچتىن 11
سۇيۇقلۇق 11
سۈر@@ 11
سېتكا 11
سېۋەتنى 11
شاڭجاۋ 11
شتى 11
شىركىتىنىڭ 11
شەربىتى 11
شەپكىسىنى 11
شەھىرىدە 11
غاندىن 11
غەۋۋاس 11
قاراڭغۇدا 11
قارى@@ 11
قارىغان 11
قايتا 11
قايتىپ 11
قايتۇرغۇچى 11
قاچى@@ 11
ققا 11
قورۇما 11
قولايلىق 11
قون@@ 11
قوندى 11
قونچاق 11
قويۇش 11
قىرغاققا 11
قىلىۋاتقاندا 11
قىلىۋاتقاندەك 11
قىياپەتنى 11
قۇر 11
قۇرۇلۇشقا 11
قۇرۇپ 11
قۇيرۇقىنى 11
قېتىم 11
قەسىدىچىلەر 11
قەغىزى 11
قەلئە 11
كاستۇم-بۇرۇلكا 11
كوچىدىن 11
كوچىسى 11
كوچىسىنى 11
كوچىلىرىدىكى 11
كىلىق 11
كۆ@@ 11
كۆرگەندە 11
كۆلچىكىدىكى 11
كۇ@@ 11
كۈزدە 11
كۈچلۈك 11
كۋارتېربېك 11
كېرىپ 11
كېسەللىكلەر 11
كېچىلىك 11
كەندە 11
لايدۇ 11
لىككە 11
لىم 11
لىنى 11
لىۋاتىدۇ 11
لەمپىسىز 11
لەي@@ 11
مايكىسىنى 11
ماڭغاچ 11
مىس 11
مىنى@@ 11
مۇز@@ 11
مۇسابىقىسىدىكى 11
مۇن@@ 11
مېترونىڭ 11
مەنزىرىدىن 11
مەنزىرىسىنى 11
مەيدىسىگە 11
نا@@ 11
نامايىشتا 11
نامرات 11
نۇ@@ 11
نەرسىلەر 11
ىدى 11
يازلىق 11
ياسىنىۋالغان 11
يانچۇقىغا 11
يىغ@@ 11
يىغىندا 11
يىل@@ 11
يۇ@@ 11
يۇقىرىدىن 11
يۈگۈر@@ 11
يۈگۈرگۈچىلەر 11
يۈگۈرگەندە 11
يېقىن@@ 11
يەل 11
پاتتى 11
پاراخو@@ 11
پرىتسېپ 11
پىرىستاندىكى 11
پىرىستاندىن 11
پىرىستاننىڭ 11
پىرەنىك 11
پىلاستىنكىسى 11
پېچىنە 11
پەس 11
پەمىدۇر 11
چاقىنى 11
چالغۇلارنى 11
چوققىسىغا 11
چوكا 11
چىش@@ 11
چىققۇچى 11
چىلىرى 11
چىملىقتىكى 11
چۆپلەرنى 11
چۈشۈرۈۋەتكەن 11
چۈنكى 11
گى@@ 11
گۈلخان 11
ھارىقى 11
ھەيكەلگە 11
ۋ@@ 11
ۋې@@ 11
ۋېلىسىپىتتىن 11
, 10
11 10
a 10
ئاددىي 10
ئالىي 10
ئايالى 10
ئورمانلىقنىڭ 10
ئورنىتىلغان 10
ئورۇن@@ 10
ئوغلىنى 10
ئويدى 10
ئىتتىرىش 10
ئىشخانا 10
ئىشخانىدىكى 10
ئىشلەتتى 10
ئىشلەۋاتاتتى 10
ئىشىكنىڭ 10
ئىككىلىسى 10
ئىچىدۇ 10
ئۆيىدىكى 10
ئۆيىنىڭ 10
ئۆگىنىش 10
ئۇلاپ 10
ئۇچلۇق 10
ئۈزىدۇ 10
ئۈزۈك 10
ئۈسكۈنىلەرنى 10
ئېتىۋالدى 10
ئېشەك 10
ئېقىننى 10
ئېكرانى 10
ئېلى@@ 10
ئېنىق 10
ئېچى@@ 10
ئېگىز@@ 10
ئېگىزگە 10
ئەت@@ 10
ئەتراپقا 10
ئەترەت 10
ئەدىيالدا 10
ئەسكى 10
ئەمەس 10
ئەن@@ 10
ات@@ 10
بارلىق 10
بازىرى 10
باشلىنىش 10
باغلام 10
بايرى@@ 10
بوتۇلكىسىنى 10
بولكىسى 10
بويۇنتۇرۇق 10
بوۋاقنىڭ 10
بىر@@ 10
بۇرۇ@@ 10
بۇيۇملار 10
بېرىلىدۇ 10
بېكىتى 10
بە@@ 10
بەيگىسى 10
تارتىش 10
تاز 10
تاشلاندۇق 10
تاشلىق 10
تاقلاپ 10
تالاشتى 10
تاي@@ 10
تاۋا 10
تاۋۇز 10
توسالغۇلۇق 10
توشقان 10
تىرناق 10
تۇرغۇچى 10
تۇرىدىغان 10
تۈرىنى 10
تەجرىبىخانا 10
تەسىر 10
تەكشۈرۈۋاتاتتى 10
تەنلىكلەر 10
تەڭپۇڭلاشتۇردى 10
تەگدى 10
جازا 10
جايلاشقان 10
جىلىتكە 10
جىپ 10
جەم 10
داپچى 10
داپچىنىڭ 10
دۇر@@ 10
دەرىجىدىن 10
دەريادىن 10
را 10
رىنى 10
رەقىبى 10
زىنىڭ 10
سايمان 10
سنى 10
سىزىقى 10
سىزىۋاتاتتى 10
سۈرئەتنى 10
سۈرتكۈچ 10
سەپەر 10
سەھنىنىڭ 10
شېخىنى 10
شەرقلىق 10
غەلىبە 10
فونتاندىن 10
قارامتۇل 10
قارلىغاچ 10
قارىتىپ 10
قالدۇرىدىغان 10
قايماق 10
قاپلىغان 10
قاچىنى 10
قىس@@ 10
قىلى@@ 10
قۇرۇقلۇق 10
قۇرۇلمىغا 10
قۇشنى 10
قۇم@@ 10
قۇيدى 10
قېرى 10
قېيىققا 10
قەھۋە@@ 10
كارىدورىدا 10
كارىۋىتىدا 10
كالىنى 10
كامانچىلىق 10
كاۋاپداننىڭ 10
كىدا 10
كىسىنىڭ 10
كىنو 10
كۆتۈرۈلگەن 10
كۆرۈنۈشىدە 10
كۆلچەككە 10
كۆمۈر 10
كۆچمە 10
كۇتۇپخانىدا 10
كۈل@@ 10
كۈندىلىك 10
كۈندىن 10
كۈچۈكنىڭ 10
كېرەكسىز 10
كېلىش 10
كەپشەرلەش 10
لان@@ 10
لايدىغان 10
لىدىغان 10
لىمدا 10
لىمون 10
لەردىن 10
لەۋاتاتتى 10
ماشىنىلار 10
ماي@@ 10
ماھىرلىرى 10
مىدى 10
مىنىڭ 10
مۇنا@@ 10
مۇنچا 10
مۈشۈكنى 10
مېكسىكا 10
مەنزىرىسىدىن 10
نوتا 10
نېپىز 10
نەرسىنىڭ 10
نەي@@ 10
نەيرەڭۋازلىق 10
يار 10
ياسىغان 10
ياندىشىپ 10
ياندىكى 10
يايمىسى 10
يوپۇرمىقى 10
يىغلاۋاتقان 10
پاخپىيىپ 10
پارقىراق 10
پورتمال 10
پويىزغا 10
پىرويېكسىيە 10
پۇتىنىڭ 10
پۇراپ 10
پۇكەي 10
پۈۋ@@ 10
پۈۋلىدى 10
پەرىشتىلەر 10
پەيلىك 10
چاقى 10
چاقچاق 10
چانىدا 10
چاپلانغان 10
چوتكىسى 10
چىتلاق 10
چىسىنىڭ 10
چىقىرىش 10
چىلار 10
چىگىپ 10
چۈشتىن 10
چېركاۋ 10
چېركاۋنىڭ 10
چېكى@@ 10
چەينەك 10
گالستۇك 10
گاڭگىراپ 10
گۆشى 10
گۈل@@ 10
گې@@ 10
ھارۋىدا 10
ھال@@ 10
ھىندىستان 10
ھەيدى@@ 10
ۋاسكېتبولنى 10
ۋاپتۇ 10
ە 10
2012 9
ئاتلىق 9
ئارى@@ 9
ئارىسىغا 9
ئاستىدىن 9
ئاسفالت 9
ئالدىنى 9
ئاپتوبۇسقا 9
ئاپپاراتقا 9
ئاپېلسىن 9
ئوتتۇرىسىغا 9
ئوتلاقنىڭ 9
ئوخشايدۇ 9
ئور@@ 9
ئوركېستى@@ 9
ئورنىنىڭ 9
ئورىلىپ 9
ئورۇن 9
ئوغۇللار 9
ئوقيا 9
ئوي@@ 9
ئويۇنچۇققا 9
ئىجا@@ 9
ئىزدە@@ 9
ئىستاكاندا 9
ئىشلەيدىغان 9
ئىشىكى 9
ئىلمىي 9
ئىچىم@@ 9
ئىگى@@ 9
ئىگىسى 9
ئۆ@@ 9
ئۆتكۈزۈ@@ 9
ئۆرۈ@@ 9
ئۆيدىن 9
ئۆگىتىۋاتىدۇ 9
ئۇرۇ@@ 9
ئۇچۇش 9
ئۈزۈ@@ 9
ئۈسكۈنى@@ 9
ئۈسكۈنىسى 9
ئۈسكۈنە 9
ئېتىزلىقنى 9
ئېتىپ 9
ئېرىق 9
ئېرىقتا 9
ئېغى@@ 9
ئېقىمى 9
ئېكران 9
ئەسلىھە@@ 9
ئەينىكىنى 9
ئەگدى 9
ان 9
بارىدۇ 9
باريېردىن 9
بازاردىن 9
بازارغا 9
باستى 9
باغ@@ 9
بالىلارنى 9
بوغقۇچىنى 9
بولغاندىن 9
بويالغان 9
بىخەتەر 9
بىرنى 9
بۆكى 9
بۇلۇڭدا 9
بۇيۇم 9
بۇيۇم@@ 9
بۇيۇملارنى 9
بېرىش 9
بېرېت 9
بېلەت 9
بەدىنىدىن 9
بەل@@ 9
تاجى 9
تار@@ 9
تارتىشىش 9
تاغلارغا 9
تاغنىڭ 9
تاقابىل 9
تالىشىۋاتىدۇ 9
توختى@@ 9
تورغا 9
توشۇش 9
تونىلدىن 9
توپچىنىڭ 9
تىجارەتچىلەر 9
تىزمىسى 9
تىزىلىپ 9
تىككۈچىلىك 9
تىكىلگەن 9
تۆگە 9
تۇتماقچى 9
تۇتۇۋاتاتتى 9
تۇخۇمنى 9
تۇر@@ 9
تۇرۇبىلىق 9
تۇرۇش 9
تۈر 9
تۈرنى 9
تۈۋرۈك 9
تېتىپ 9
تېخى 9
تېما 9
تەرىپىنى 9
تەرگە 9
تەمىنلەيدۇ 9
جارقىرىدى 9
جانلىقلىرى 9
خاتىرى@@ 9
خادىنى 9
خانا 9
خانىغا 9
خىزمەتچىلىرى 9
خۇ@@ 9
خېمىر 9
دائىرىسى 9
داتلىشىپ 9
دالىدىكى 9
دالىنى 9
دوسكىغا 9
دوقمۇشىدىكى 9
دولقۇنسىمان 9
دوپپا 9
دىنىي 9
دۈم 9
دەرسى 9
دەرىجىلىك 9
دەرۋازىدىن 9
ردا 9
رول 9
رىدا 9
رىنىڭ 9
رەت@@ 9
رەسىمدە 9
رەسىمنىڭ 9
رەقەملىك 9
زا 9
زامان 9
زىرائەت 9
سا 9
سارى 9
سوقۇ@@ 9
سوۋغات 9
سىرلىدى 9
سىزىدىغان 9
سىنىپنىڭ 9
سۆرەۋاتىدۇ 9
سۈرتىۋاتىدۇ 9
سېتىشقا 9
سېسترا 9
سېلىۋاتاتتى 9
سېۋەتكە 9
شادلىق 9
شاكىلات 9
شنىڭ 9
شىر 9
شەرقىي 9
غۇ@@ 9
غۇچىنىڭ 9
فى@@ 9
فې@@ 9
قات@@ 9
قاتنىشىدۇ 9
قارا@@ 9
قارار 9
قارىغاي 9
قاشا@@ 9
قالتىس 9
قاچىغا 9
قاۋاقخانىدىن 9
قو@@ 9
قوراللىق 9
قورۇ@@ 9
قوغدى@@ 9
قولدىشى 9
قونۇش 9
قىرغاقتىكى 9
قىش 9
قىلغۇچىلار 9
قىلىندى 9
قۇت 9
قۇتىغا 9
قۇراش@@ 9
قۇيۇۋاتىدۇ 9
قۇچاقلاۋاتىدۇ 9
قەلىمى 9
كارىدو@@ 9
كرېست 9
كىدە 9
كىرگۈزدى 9
كۆرگەزمىسى 9
كۆرگەزمىسىدە 9
كۆرۈنىدۇ 9
كۆرۈنۈشنى 9
كۆكتاتلارنى 9
كۆلدىكى 9
كۆڭلى 9
كۆڭلەككە 9
كۆڭلەكنى 9
كۈز 9
كۈلكە 9
كېسەل 9
كېلىۋاتاتتى 9
كېمىدىكى 9
كېمىنى 9
كەس@@ 9
كەپشەر@@ 9
لاشتى 9
لاۋاتقان 9
لىدىن 9
لىكىگە 9
لىنىش 9
لەشتى 9
ماللار 9
ماڭ@@ 9
منىڭ 9
موتسىكلى@@ 9
مىخ 9
مىلىچمال 9
مۇداپىئە@@ 9
مۇزىكانتلار 9
مۇنارى 9
مۇھىتتا 9
مېتالنى 9
مېڭىش 9
مېھمانخانىنىڭ 9
مەدەت 9
مەركىزىنىڭ 9
مەززىلىك 9
مەكتەپنىڭ 9
مەنزىرىنى 9
مەڭزىگە 9
مەۋج 9
ناخشىچىسى 9
نازارەت 9
نامايان 9
نغا 9
نۇقتىغا 9
نېمىنى 9
نەيچە 9
ىنى 9
ياغ@@ 9
يالىدى 9
يانتۇلۇقتىن 9
يايمى@@ 9
ياپونچە 9
ياڭيۇ 9
يورۇ@@ 9
يولۇ@@ 9
يىراق 9
يىغلاپ 9
يىغىلىشقا 9
يىقىتتى 9
يۇيۇۋاتىدۇ 9
يېتى@@ 9
يېتىلىۋالدى 9
يېرى@@ 9
يېزىدا 9
يېمەكلىكلەردىن 9
يېگەچ 9
يە@@ 9
يەۋاتقان 9
پات@@ 9
پاكىز 9
پالاستا 9
پور@@ 9
پولغا 9
پولىدا 9
پوچتا 9
پىشلاق 9
پۇتبولغا 9
پۇر@@ 9
پۈۋلەۋاتاتتى 9
پەس@@ 9
پەلەمپىيىدە 9
چ 9
چاچ@@ 9
چىدىن 9
چىراغنى 9
چىرقىرىدى 9
چىشلىۋالدى 9
چىغا 9
چىق@@ 9
چىققاندا 9
چىگى@@ 9
چۆ@@ 9
چېكىپ 9
چېكىۋاتاتتى 9
چېلى@@ 9
چېلىش 9
چېلىۋاتاتتى 9
چېلەككە 9
گىتارنى 9
گۈلنى 9
گۈچى 9
ھازىرقى 9
ھايۋانلارنىڭ 9
ھو@@ 9
ھەرىكىتىنى 9
ھەم@@ 9
ھەمراھ 9
ھەيدە@@ 9
! 8
amp 8
ئاتماقچى 8
ئارتىس 8
ئارىلاشتۇرۇش 8
ئالماش@@ 8
ئايروپىلاندىن 8
ئايروپىلاننىڭ 8
ئايلاندى 8
ئاڭلى@@ 8
ئاۋىئاتسىيە 8
ئاۋۇ 8
ئوتۇن 8
ئورۇق 8
ئورۇۋاتىدۇ 8
ئوغرىلىقچە 8
ئوقۇپ 8
ئويغا 8
ئويۇنچۇقى 8
ئويۇۋاتىدۇ 8
ئوڭغا 8
ئىجرا 8
ئىستاكانىنى 8
ئىسكىلاتىنىڭ 8
ئىشارەت 8
ئىشقا 8
ئىشلى@@ 8
ئىشلىتىۋاتاتتى 8
ئىچى@@ 8
ئىچىملىكنى 8
ئۆينى 8
ئۆڭكۈر@@ 8
ئۆڭكۈردە 8
ئۆگزە 8
ئۆگىنىۋاتىدۇ 8
ئۇخلاۋاتاتتى 8
ئۇسسۇل@@ 8
ئۇچقۇنلىرى 8
ئۇچۇر@@ 8
ئۇچۇۋاتقان 8
ئۈزىدىغان 8
ئۈستەلدىكى 8
ئۈسكۈنىلىرىنى 8
ئېتىدۇ 8
ئېغىرلىق 8
ئېغىناۋاتىدۇ 8
ئېقىپ 8
ئېلىۋاتقان 8
ئەرلەرنىڭ 8
ئەسۋابى 8
ئەھۋال 8
ا 8
اتتى 8
باداشقان 8
بازىرىدىكى 8
باغرىغا 8
باغلىغان 8
باقىدۇ 8
بامبۇك 8
بايراملىق 8
باھا@@ 8
بولۇ@@ 8
بويىنى 8
بىلىكىدە 8
بىناسىدا 8
بۇرنى 8
بۇلۇڭ 8
بۇيرۇ@@ 8
بۈگرى 8
بېرىدىغان 8
بېزىكى 8
بېلىقچىلىق 8
بەلگىنىڭ 8
تاختىدىن 8
تاختىسىنىڭ 8
تاختىغا 8
تارتىلغان 8
تازىلاش 8
تاس 8
تاس@@ 8
تاشتىن 8
تاشلاشقا 8
تاشلى@@ 8
تاماملىدى 8
تاپ@@ 8
تراكتورنى 8
ترامۋاي 8
توخۇنى 8
تورنى 8
توشۇۋاتىدۇ 8
تولغىما 8
تونىلىدا 8
تونېل 8
توپ@@ 8
توپىنىڭ 8
تىدۇ 8
تىزلىق 8
تىسىنى 8
تىكتاك 8
تىكلىنىپ 8
تۆتىنچى 8
تۆشۈ@@ 8
تۆگىگە 8
تۆۋەندىكى 8
تۇتقۇچنى 8
تۇتىۋاتىدۇ 8
تۇركۋويس 8
تۇرۇبى@@ 8
تۇرۇبىنى 8
تۇمانلىق 8
تۈرتكە 8
تۈرۈ@@ 8
تۈرۈم 8
تۈۋىدە 8
تېلېفونىدا 8
تېلېكامېرانىڭ 8
تېپى@@ 8
تېپىدۇ 8
تەبىئىي 8
تەبەسسۇم 8
تەرەققىي 8
تەشكىل@@ 8
تەكشۈرىۋاتىدۇ 8
تەييارلاندى 8
تەپكۈلىك 8
تەپمەكچى 8
تەڭپۇڭلاش@@ 8
تەۋرىنىپ 8
ج@@ 8
جابدۇق 8
جاي@@ 8
جايغا 8
جاپالىق 8
جىسىمنىڭ 8
جىنىسلىرى 8
خا@@ 8
خام 8
خور 8
خۇشاللىقىدىن 8
داغ 8
دورا 8
دوستىغا 8
دولقۇنغا 8
دىنىڭ 8
دۆۋى@@ 8
دېرىزىسىنى 8
دېرىزىگە 8
دېھقان 8
دەرسىدە 8
دەرياغا 8
دەرەختىن 8
رايونغا 8
ردىن 8
رىدىن 8
رېلىسىدا 8
رەتلەۋاتىدۇ 8
رەسسام 8
رەڭگى 8
زىغا 8
ساتىراش 8
سارىيىدىكى 8
ساليوت 8
سانائەت 8
سودىگەر 8
سوپۇن 8
سوۋغا 8
سىرلانغان 8
سىمى 8
سۇ@@ 8
سۇپىدا 8
سۈرەتنى 8
سۈمۈرىۋاتىدۇ 8
سۈيىدە 8
سېتى@@ 8
سېتىۋال@@ 8
سېتىۋېلىۋاتىدۇ 8
سېھىرگەرلىك 8
سەرگەردان 8
سەكرەشكە 8
سەپ 8
شىدۇ 8
شۇڭغۇ@@ 8
شې@@ 8
شەكىل 8
شەكىل@@ 8
شەپەرەڭ 8
غاندەك 8
فونتانغا 8
قارايدۇ 8
قارغا 8
قارنى 8
قاقاس 8
قاقلىنىۋاتىدۇ 8
قالپىقىنى 8
قاندا 8
قاچىلىدى 8
قاۋاق@@ 8
قلىق 8
قورا@@ 8
قورالى 8
قورساق 8
قولغا 8
قويىدىغان 8
قويۇ@@ 8
قىزىغا 8
قىزىنى 8
قىسمىنى 8
قىياپىتى 8
قىيسىيىپ 8
قىيما 8
قۇتىنىڭ 8
قۇشلار 8
قۇچ 8
قۇچاقلىۋالغان 8
قۇچىنىڭ 8
قېرىنداش 8
قېزىش 8
قەدەر 8
قەدەم 8
قەھۋەخانا 8
كاتەكچە 8
كارىۋاتقا 8
كال@@ 8
كالىنىڭ 8
كانى@@ 8
كاۋاپداننى 8
كنىڭ 8
كولىدى 8
كوماندىسىدىكى 8
كونۇس 8
كىرىشكە 8
كىيىم@@ 8
كۆتۈر@@ 8
كۆرسىتىدۇ 8
كۆرۈۋاتقاندا 8
كۆيۈپ 8
كۆۋرۈكنىڭ 8
كۈركە 8
كېمىدىن 8
كېچەكلەرنى 8
كەسكىن 8
كەلگەندە 8
كەينىنى 8
كەچكى 8
لاتىن 8
لىرىدىن 8
لىقتىن 8
لىقىنى 8
لىنىدىغان 8
لىگەن 8
لۇققا 8
لۇپ 8
لېن@@ 8
لەندى 8
ماتېرىيال 8
ماشىنىسىدىكى 8
ماكانسىز 8
مايدۇ 8
ماڭىدىغان 8
ماھىر@@ 8
موتسىكلىتى 8
موتوسىكلىتتا 8
مودېلى 8
مىغان 8
مىنىبۇس 8
مىنىۋاتاتتى 8
مىگەن 8
مۇراسىمى 8
مۇزېيدا 8
مۇسابىقىنىڭ 8
مۇقىم 8
مۇلازىمەتچىسىز 8
مۇناسىۋەتلىك 8
مۇھەببەت 8
مېڭىشقا 8
مېھمان@@ 8
مەرمەر 8
مەس@@ 8
مەشئەل 8
مەن@@ 8
مەنزىلگە 8
نومۇر@@ 8
نىشانغا 8
نۇرىدا 8
نۇرىنى 8
نۇقتىسى 8
نەقىش 8
ياساپ 8
ياش@@ 8
ياغاچقا 8
ياغقاندا 8
ياپونىيە 8
ياپونىيەلىك 8
يدۇ 8
يوللىدى 8
يولۋاس 8
يوپۇرماق 8
يىرتىق 8
يىنى 8
يۇلتۇز 8
يۇيۇپ 8
يېتەكچىلىك 8
يېزى@@ 8
يېزىدىكى 8
يېقى@@ 8
يېقىنلاشقاندا 8
يېيىشكە 8
پاختا 8
پاراخوتتىكى 8
پاراخوتنىڭ 8
پارلاپ 8
پارچىلىرى 8
پتۇ 8
پوسۇلكا 8
پىشقان 8
پىل 8
پىژغىرىم 8
پۈتمىگەن 8
پۈركىدى 8
پۈركۈ@@ 8
پۈركۈۋاتىدۇ 8
پەتنۇس 8
پەن 8
چات@@ 8
چاقنىڭ 8
چالغۇ@@ 8
چامباشچى 8
چاپلىشىپ 8
چوشقا 8
چوڭلۇقتىكى 8
چىرايى 8
چىلارنىڭ 8
چۈش@@ 8
چۈششەك 8
چېتىدە 8
چېدىرنىڭ 8
چېچى@@ 8
چېچىلىپ 8
گارمونى 8
گو 8
گو@@ 8
گىرەلەشتۈرۈپ 8
گۆ@@ 8
گۇ@@ 8
گۈرجەكنى 8
گەن@@ 8
گەندەك 8
ھ@@ 8
ھايۋانات 8
ھاۋاي 8
ھويلىسىدا 8
ھېسابات 8
ھەجۋىي 8
ھەقسىز 8
ھەمراھى 8
ھەيكەلنى 8
ۈردى 8
ۋاراتا 8
ۋېلىسىپىتىدە 8
ۋېلىسىپىتىنىڭ 8
‹ 8
› 8
.@@ 7
10 7
3 7
5 7
8 7
؟ 7
ئاتىلىدىغان 7
ئادەتتىكى 7
ئار@@ 7
ئارا 7
ئارتۇق 7
ئازادە 7
ئاساسىي 7
ئاسماندىكى 7
ئاسماننى 7
ئاسىيادىكى 7
ئالدىراپ 7
ئالماشتۇردى 7
ئاندىن 7
ئايرىپ 7
ئاپتاپتا 7
ئاپتوبۇ@@ 7
ئاپتوموبىلغا 7
ئاپتوموبىلىغا 7
ئاپپاراتىنى 7
ئاگاھلاندۇرۇش 7
ئاۋ@@ 7
ئورتاق 7
ئوركېستىرى 7
ئورمانلىققا 7
ئورنىغا 7
ئورى@@ 7
ئوقۇر@@ 7
ئوقۇرى 7
ئولتۇرسا 7
ئويما 7
ئويناشنى 7
ئويۇنىغا 7
ئويۇنچۇق@@ 7
ئويۇپ 7
ئوچاقتا 7
ئىستاكانى 7
ئىستانسىسى 7
ئىسكىرىپكىچى 7
ئىسكىنە 7
ئىشخانىسىدا 7
ئىشلىتىشنى 7
ئىككىنچى 7
ئىلىم 7
ئىمارەتتىن 7
ئىمارەتكە 7
ئۆرۈلۈش 7
ئۆزىگە 7
ئۆچ@@ 7
ئۆگزىدىكى 7
ئۆگزىسىدە 7
ئۇرۇشۇۋاتىدۇ 7
ئۇچرىغان 7
ئۇچىدۇ 7
ئۈستەلدىن 7
ئۈشكە 7
ئېتىز@@ 7
ئېتىشنى 7
ئېغىزىغا 7
ئېلانغا 7
ئېلىشنى 7
ئېيتى@@ 7
ئەتراپىنى 7
ئەخمىقانە 7
ئەخمەق 7
ئەرمۇ 7
ئەرمەك 7
ئەلدە 7
ئەمەلدار 7
ئەينەكنى 7
بارخان@@ 7
بارماقلىرى 7
باستېر 7
باشقىلارغا 7
باشلى@@ 7
باغچىسى 7
باغۋەنچىلىك 7
بايرام 7
بايرامدا 7
برو@@ 7
بو@@ 7
بوتۇل@@ 7
بوشلۇققا 7
بولسىمۇ 7
بولقىنى 7
بولۇشنى 7
بى 7
بىنا 7
بۆسۈپ 7
بۇيرۇتتى 7
بۇيۇمىنى 7
بېرىلىۋاتقان 7
بېلىققا 7
بېلىقچىلار 7
تارتىشقا 7
تارىخىي 7
تاسمىسىنى 7
تاقايدۇ 7
تاللىدى 7
تاماشىبىن 7
تامام@@ 7
تاماملاۋاتىدۇ 7
تايانغان 7
تاپانچا 7
توختىتىلغان 7
توش@@ 7
توشۇپ 7
توغرىسىغا 7
توققۇز 7
توقۇدى 7
توپچىسىنى 7
تىرنى@@ 7
تىزىدا 7
تىزىلغانىدى 7
تىك@@ 7
تىكى@@ 7
تىكىۋاتىدۇ 7
تىپىدىكى 7
تۇرمۇ@@ 7
تۇمان 7
تۇيۇقسىز 7
تۈردى 7
تۈگمە 7
تۈۋرۈ@@ 7
تېلىقىپ 7
تېمىنى 7
تەرتىپ 7
تەرەت 7
تەرەپنى 7
تەشتەك@@ 7
تەشۋىقات 7
تەنھەرىكەتچىسىنى 7
تەييارلاۋاتاتتى 7
تەڭشىدى 7
جازىسىغا 7
جون 7
جىلغى@@ 7
جۇڭگونىڭ 7
جۇڭگوچە 7
جۈملىدىن 7
جەي@@ 7
خانىنىڭ 7
خېرىدارلارنى 7
خېمىرنى 7
خەرىتىسى 7
داستىخان 7
داشۆ@@ 7
دالىغا 7
دامكا 7
دوختۇر@@ 7
دوختۇرخانىدا 7
دوستۇم 7
دولقۇننى 7
دىنوزاۋر 7
دىنى 7
دۆلەت@@ 7
دۆۋىلەپ 7
دۇ@@ 7
دۇردى 7
دۇنيا 7
دۈمبىسىدە 7
دېرىزىسىگە 7
دېڭىزدىن 7
دەس@@ 7
رايونىنىڭ 7
راھىب 7
رنى 7
رولىنى 7
رىگە 7
رەتلىك 7
رەختنى 7
رەڭگە 7
زامانىۋى 7
زنى 7
زوراۋان@@ 7
زى 7
زەمبىرەك 7
زەنجىرلىك 7
سارىيى 7
ساقلى@@ 7
سايمانلىرى 7
ست@@ 7
سوم@@ 7
سىستې@@ 7
سىلىق 7
سىم@@ 7
سىمۇ 7
سىيە@@ 7
سىگارت 7
سۆرەيدىغان 7
سۆڭىكى 7
سۇپا 7
سۇپىسى 7
سۈنئىي 7
سۈپۈرۈۋاتىدۇ 7
سېتىۋالغۇچىلار 7
سېتىۋېلىۋاتاتتى 7
سە 7
سەكرىمەكتە 7
سەكرىمەكچى 7
سەپ@@ 7
شارقىراتمىغا 7
شتا 7
شوتلاندىيە 7
شوپۇرى 7
شىپ 7
شېكەر 7
شەپەق 7
شەھىرىدىكى 7
شەھەر@@ 7
غاجىلاۋاتىدۇ 7
غالتەككە 7
غى@@ 7
غۇچىلار 7
فىگۇرا 7
قار@@ 7
قارىغاچ 7
قازاندا 7
قازانغا 7
قاس@@ 7
قاقلاندى 7
قالغاندەك 7
قايچا 7
قاپ 7
قولدا 7
قويغۇچىلار 7
قويىدۇ 7
قىرقىۋاتىدۇ 7
قىلغىلى 7
قىيمىلىق 7
قۇ 7
قۇرۇلمىسى 7
قۇرۇلۇشىنىڭ 7
قۇلىقى 7
قۇلىقىنى 7
قۇملۇقتىكى 7
قې@@ 7
قېلىپ 7
قەلئە@@ 7
كاھىش 7
كاۋاپ@@ 7
كاۋكازلىق 7
كلاسسىك 7
كولاۋاتاتتى 7
كونسېرۋا 7
كىدىكى 7
كىران 7
كىرىۋالدى 7
كىسلوفون 7
كىم 7
كىيمەي 7
كۆتۈرۈ@@ 7
كۆتۈرۈۋاتىدۇ 7
كۆتۈرۈۋېلىپ 7
كۆڭۈللۈك 7
كۈلكىلىك 7
كېتى@@ 7
كېتىدۇ 7
كېلىپ 7
كېمى@@ 7
كېمىسى 7
كە@@ 7
كەت@@ 7
لاكى 7
لغا 7
لوزۇنكىلارنى 7
لىرىگە 7
لىشى@@ 7
لىغان 7
لىقى 7
لىن@@ 7
لىنى@@ 7
لىپتىك 7
لې@@ 7
لەشكە 7
لەن 7
لەۋ 7
مارك 7
موتوسىكلىتنى 7
موناخ 7
مىدا 7
مىسىنىڭ 7
مىللىي 7
مىنىبۇسقا 7
مىنگەندە 7
مىگە 7
مۆتىۋەرنىڭ 7
مۇزىكانتى 7
مۇزىكىسىنى 7
مۇقىملاش@@ 7
مۈرىنى 7
مۈرىگە 7
مېنىڭ 7
مېۋى@@ 7
مەشىقى 7
مەكتەپتە 7
مەيداننىڭ 7
ناكىدكا 7
نامايى@@ 7
نامايىشقا 7
ندى 7
ندىن 7
نىدىكى 7
نىقابلىق 7
نىيە 7
نۇقتىسىدا 7
نەزىرى 7
ياردەمچى 7
ياساش 7
ياشتىكى 7
ياغاچتا 7
يانتۇلۇقنى 7
ياي@@ 7
يوشۇرۇنۇۋالدى 7
يوپۇرماق@@ 7
يىلپىز 7
يۆ@@ 7
يۆتكىدى 7
يۈرۈشكە 7
يۈگۈرۈشكە 7
يېتىلىۋالغان 7
يېرىش 7
يېرىمىغا 7
يېمەكلىكلىرىنى 7
يەت@@ 7
يەشى@@ 7
يەنىلا 7
يەيدىغان 7
يەۋاتقاندا 7
پائالىيەت@@ 7
پاراڭلىشىپ 7
پارچى@@ 7
پالۇبىدا 7
پالۋان 7
پنى 7
پى 7
پىششىق 7
پىكاپ 7
پىنىڭ 7
پۇرچاق 7
پۇلاڭلىتىۋاتىدۇ 7
پۈركۈگۈچ 7
پېتىشنى 7
پېدال@@ 7
چار@@ 7
چاسا 7
چاققا 7
چال@@ 7
چالغۇسىنى 7
چانىغا 7
چىرى@@ 7
چىسىنى 7
چىشلەۋاتىدۇ 7
چىقى@@ 7
چىقىرى@@ 7
چىقىرىۋاتاتتى 7
چىم@@ 7
چىگە 7
چۆپ@@ 7
چېدىر@@ 7
چېلەكنىڭ 7
چەككەچ 7
چەمبىرە@@ 7
چەمبەر 7
گا@@ 7
گويا 7
گىرى@@ 7
گىرۋىكىدە 7
گۈ@@ 7
گەچ 7
ھاسىل 7
ھالرەڭ 7
ھايۋانلارنى 7
ھۇجۇمچى 7
ھەر@@ 7
ھەرىدەۋاتىدۇ 7
ھەرىكەت@@ 7
ھەيدەش 7
ھەيكىلىنىڭ 7
ھەيياردەك 7
ۈ@@ 7
ۈشنى 7
ۋاراتارى 7
ۋاق@@ 7
ۋاگونىدا 7
ۋولىنكا 7
ۋىترىنا 7
12 6
9 6
bmw 6
ipod 6
ئائىلىدىكى 6
ئائىلىسىدى@@ 6
ئائىلىنىڭ 6
ئاتقان 6
ئاخىرلاشقاندا 6
ئادەم@@ 6
ئارغامچىسى 6
ئارىلاش@@ 6
ئارىلاشما 6
ئازگىلىدىن 6
ئازگىلىغا 6
ئاسا@@ 6
ئاشىق-مەشۇقلار 6
ئاقارتىۋاتىدۇ 6
ئالدىنقى 6
ئالماقچى 6
ئالىم 6
ئاممى@@ 6
ئامېرى@@ 6
ئايروپىلانغا 6
ئايروپىلاننى 6
ئايرىلىپ 6
ئايرىلىۋاتىدۇ 6
ئايرىمخانىدا 6
ئايرىۋاتىدۇ 6
ئايلاندۇر@@ 6
ئايلىنىۋاتىدۇ 6
ئاپىسى 6
ئاپىسىنىڭ 6
ئاڭلاپ 6
ئوتتۇرىدىكى 6
ئوتنى 6
ئوخشايتتى 6
ئوركېستىر 6
ئورمانلىقتىن 6
ئورنىدىكى 6
ئورىۋېلىندى 6
ئورۇ@@ 6
ئورۇندۇقى 6
ئورۇنغا 6
ئولىشىۋالغان 6
ئويۇنچۇ@@ 6
ئوڭغۇل 6
ئوۋ 6
ئىتالىيە 6
ئىزنەك 6
ئىستاكاندىن 6
ئىسىملىك 6
ئىشكا@@ 6
ئىشكاپى 6
ئىشلىرى 6
ئىشلەتكەن 6
ئىشنى 6
ئىشىكىنى 6
ئىل@@ 6
ئىمارەت@@ 6
ئىچىدىن 6
ئۆتۈشىنى 6
ئۆر@@ 6
ئۆسۈپ 6
ئۆلچىدى 6
ئۆلۈك 6
ئۆمۈچۈك 6
ئۆگزى@@ 6
ئۆگزىگە 6
ئۆگەندى 6
ئۇخ@@ 6
ئۇدۇلىغا 6
ئۇرماقچى 6
ئۇرۇشنى 6
ئۇرۇۋاتاتتى 6
ئۇستىسى 6
ئۈسكۈنىدە 6
ئۈسكۈنىسىدە 6
ئۈسكۈنىسىنى 6
ئۈن 6
ئېتىزلىقتىكى 6
ئېتىزنىڭ 6
ئېرىققا 6
ئېسىۋالغانىدى 6
ئېكرا@@ 6
ئېكراندىكى 6
ئېكسكۇرسىيە 6
ئېلا@@ 6
ئېلىنغان 6
ئېيتىۋاتقان 6
ئېڭى@@ 6
ئېھتىيات 6
ئەتراپنىڭ 6
ئەدەبىيات 6
ئەرەپ 6
ئەزاسىنى 6
ئەسكەر@@ 6
ئەسلىھەلىرىنى 6
ئەسىرىنى 6
ئەسۋابلىرىنى 6
ئەن 6
ئەينەك@@ 6
ئەپلىك 6
ا@@ 6
ال@@ 6
باس@@ 6
باش@@ 6
باشقىلارنى 6
باغرىدىن 6
باغچىسىنىڭ 6
باغچىغا 6
بالى@@ 6
بالىدىن 6
بالىسىنىڭ 6
بالىلىرى 6
باي@@ 6
بايراقنىڭ 6
بوتكى@@ 6
بولاتتى 6
بولغاندەك 6
بولمايدىغان 6
بىنا@@ 6
بىنالار 6
بىي 6
بۆ@@ 6
بۆلۈ@@ 6
بۇرنىغا 6
بۇرۇلۇش 6
بۇغا 6
بۇلۇ@@ 6
بۇيرۇتۇ@@ 6
بۈ@@ 6
بۈركۈت 6
بېر@@ 6
بېس 6
بېكىتىنى 6
بەرمەكچى 6
بەللىك 6
تاختايدا 6
تاختىنىڭ 6
تارتىۋالغان 6
تاشلىۋېتى@@ 6
تاشيولنى 6
تاغنى 6
تاكسىنىڭ 6
تالا@@ 6
تالانتىنى 6
تاماقخانىدا 6
تتا 6
ترۇمپېت 6
توختىتى@@ 6
تورنىڭ 6
تورۇسنى 6
توشۇ@@ 6
توغراپ 6
توغراۋاتىدۇ 6
توغرى@@ 6
توقۇلغان 6
تول@@ 6
توپكا 6
تىجارەت 6
تىرنىقىنى 6
تىرى@@ 6
تىزىپ 6
تىكتى 6
تىكلىدى 6
تىياتىرخانىنىڭ 6
تىۋاتاتتى 6
تىۋاتقان 6
تۆكۈ@@ 6
تۆكۈۋاتىدۇ 6
تۆۋەن@@ 6
تۇتىدۇ 6
تۇتىشىدىغان 6
تۈۋرۈكى 6
تېلېفونىغا 6
تېنەپ 6
تېيىلىشقا 6
تېپشنى 6
تەبرىك@@ 6
تەخ@@ 6
تەخسىگە 6
تەزىم 6
تەسىس 6
تەسۋىرلەنگەن 6
تەش@@ 6
تەقەززالىق 6
تەكشۈرۈش 6
تەيدى 6
تەپكەن 6
تەڭشەش 6
جازىسىنىڭ 6
جان 6
جانلىق 6
جۈ@@ 6
جۈمىكى 6
جەمئىيىتىنىڭ 6
جەنۇبىي 6
خاتىرىلىدى 6
خاسىيەتلىك 6
خالتى@@ 6
خانىدىكى 6
خانىمغا 6
خانىملار 6
خاپا 6
خو@@ 6
خىزمەت@@ 6
خىشتىن 6
خۇشاللىق 6
خەنجەر 6
خەنزۇچە 6
داس 6
دال@@ 6
داپ 6
دو@@ 6
دوختۇرى 6
دوس@@ 6
دوقمۇشتا 6
دولقۇنىدىن 6
دولقۇنىنى 6
دوڭغۇل 6
دۆشە 6
دۇخوپ@@ 6
دۇرۇۋاتىدۇ 6
دۇكاندىن 6
دۇكىنىغا 6
دۈردى 6
دەرىخىنى 6
دەستىسى 6
دەستىسىنى 6
رات@@ 6
راللى 6
رايوندىكى 6
رايوننى 6
رومكا 6
رىغا 6
رىقابەت@@ 6
رېشاتكىسىدا 6
رېشاتكىسىغا 6
رەختكە 6
رەقىبىنى 6
رەڭ@@ 6
زال@@ 6
زاۋۇت 6
زاۋۇتىدا 6
زوراۋانلىقنىڭ 6
زۇ@@ 6
زېھنى 6
زەر@@ 6
زەنجىرنى 6
سائىتى 6
سافاغا 6
ساق@@ 6
ساقاللىرى 6
ساقچىلىرى 6
ساكسوفون 6
سان@@ 6
سانلىق 6
ساياھەت@@ 6
سايىۋەن 6
ستى@@ 6
سورۇنلاردا 6
سوۋغىتىنى 6
سىر@@ 6
سىرتماق 6
سىزغان 6
سىزىپ 6
سىلاپ 6
سىمىنى 6
سىياسىي 6
سىيرىت@@ 6
سۆرى@@ 6
سۆيۈ@@ 6
سۇنىڭ 6
سۈرئەت 6
سۈركىلىپ 6
سۈركىگەن 6
سۈرەتتىكى 6
سېتىلىدىغان 6
سېتىۋالغۇچى 6
سېلىن@@ 6
سەت 6
سەكرى@@ 6
سەكرىگەن 6
سەكرىگەندە 6
سەكرەيدۇ 6
سەن@@ 6
سەنئىتىنى 6
سەندەل 6
سەھنىگە 6
شالاڭ 6
شت@@ 6
شوتىدىن 6
شوتىنى 6
شىدىن 6
شېخىدا 6
شېخىغا 6
شەخ@@ 6
شەكلىدە 6
غ 6
غا@@ 6
غازاڭلار 6
غالتەك 6
غىچە 6
غۇ 6
غۇچ@@ 6
غۇچنى 6
غەيرىي 6
فرانسىيە 6
فورد 6
فۇت 6
قاتناشقا 6
قاتنىشىپ 6
قاتنىشىۋاتاتتى 6
قاراقچىسى 6
قارايدىغان 6
قارىماي 6
قان@@ 6
قانىتى 6
قايتۇرۇش 6
قاچ@@ 6
قاچىدىن 6
قاۋاقخانىدىكى 6
قلارنى 6
قوتۇرمىچى 6
قورسىقىنى 6
قوشۇ@@ 6
قول@@ 6
قونچاقنى 6
قونۇشقا 6
قوي@@ 6
قويغاندا 6
قوپال 6
قىرغى@@ 6
قىرغىقىنى 6
قىزغىنلىق 6
قىستىلىپ 6
قىسى 6
قىلغاندىن 6
قىلىۋەتتى 6
قىيا@@ 6
قىياپىتىگە 6
قىياپەتكە 6
قۇر@@ 6
قۇرۇلمىلىق 6
قۇرۇلمىنى 6
قۇرۇلۇشتا 6
قۇشلارنىڭ 6
قۇچاقلى@@ 6
قۇچاقلىۋالغانىدى 6
قۇچنى 6
قۇچى 6
قېپى 6
قېچى@@ 6
قەھۋەخانىدىكى 6
قەھۋەخانىنىڭ 6
قەۋەتتىكى 6
كارخانىنىڭ 6
كارىدوردىن 6
كان 6
كانادا@@ 6
كتە 6
كوكاكولا 6
كولاپ 6
كوماندى@@ 6
كون@@ 6
كوچىسىدىكى 6
كوچىسىنىڭ 6
كىشىلەرنى 6
كىنو@@ 6
كىي@@ 6
كىيى@@ 6
كىيىمنى 6
كۆتۈرۈش 6
كۆرمەكتە 6
كۆرۈش@@ 6
كۆرۈنمە 6
كۆزىتىدۇ 6
كۆزەت@@ 6
كۆزەتكۈچى 6
كۆكرى@@ 6
كۆمۈلۈپ 6
كۆڭلىكىگە 6
كۆۋرۈ@@ 6
كۆۋرۈكىدە 6
كۈتۈش 6
كۈز@@ 6
كۈنىنى 6
كېسىش 6
كېمىسىدە 6
كېمىسىنىڭ 6
كېچىدىكى 6
كەتكەندەك 6
كەتمەكچى 6
كەنت 6
كەپ@@ 6
لاتتى 6
لاردا 6
لاغايلاپ 6
لاي@@ 6
لايىھى@@ 6
لايىھىلەنگەن 6
لايىھە@@ 6
لاۋاتاتتى 6
لاۋاتقاندەك 6
لغاندا 6
لنى 6
لوزۇن@@ 6
لوزۇنكى@@ 6
لوپا 6
لىشىۋاتىدۇ 6
لىفىت 6
لىق@@ 6
لىكتە 6
لىمنى 6
لىڭگىرتاقتاق 6
لىگۈچى 6
لېگاۋ 6
لە 6
لەردە 6
لەۋاتقان 6
لەۋاتقاندەك 6
ماتروس 6
ماتېرىيال@@ 6
ماركا 6
ماق 6
ماكدونالد 6
مايمۇن 6
ماڭسا 6
ماگىزىنىنىڭ 6
منى 6
موتسىكلىتقا 6
موتسىكلىتنى 6
موتوسىكلىتىنى 6
مىخ@@ 6
مىكروسكو@@ 6
مىل@@ 6
مىللەت 6
مىلىق 6
مىنىبۇ@@ 6
مىنىشكە 6
مىنىۋالغان 6
مۇرەككەپ 6
مۇزى@@ 6
مۇسابىقىدىكى 6
مۇسكۇللىرى 6
مۇشتىنى 6
مۇقىملاشتۇردى 6
مۇنبەرنىڭ 6
مۇھى@@ 6
مۈرىسىنى 6
مې@@ 6
مېكسى@@ 6
مېھمان 6
مېھمانخانىسىنىڭ 6
مە@@ 6
مەستانى@@ 6
مەكتەپ@@ 6
مەلھىمى 6
مەنزىرىسىگە 6
مەيدانغا 6
مەھسۇلات@@ 6
مەھسۇلاتنى 6
ناخشى@@ 6
نوقۇپ 6
نىسبەتەن 6
نىك 6
نىپ 6
نىۋاتىدۇ 6
نۇقتى@@ 6
نەرسى@@ 6
و 6
و@@ 6
ىدەك 6
ياتقۇزۇۋاتىدۇ 6
ياتما 6
ياردەم@@ 6
ياردەمچىسى 6
يارنىڭ 6
يارى@@ 6
ياز@@ 6
ياساشقا 6
ياسايدۇ 6
ياساۋاتقان 6
ياستۇقتا 6
يالغاندىن 6
يامىشىشقا 6
يامىشىۋاتاتتى 6
ياندا 6
يايمىسىدىن 6
ياڭ@@ 6
ياڭراتقۇ 6
ياۋروپا 6
ياۋروپادىكى 6
يور@@ 6
يوپ@@ 6
يوپۇرمى@@ 6
يىغىش@@ 6
يىغىلىدۇ 6
يىڭنە 6
يۆتكە@@ 6
يۆلەندى 6
يۆنىلىشلىك 6
يۇم@@ 6
يۇيدى 6
يېزىقچىلىق 6
يېزىۋاتاتتى 6
يېمەكلىك@@ 6
يېمەكلىكلەر 6
يېمەكلىكنىڭ 6
يېمەكلىكىنى 6
يېپىپ 6
يېگەندە 6
يەتكۈزۈش 6
يەرنى 6
يەككە 6
پاراكەندە 6
پارت@@ 6
پال@@ 6
پروفېسسور 6
پرويېكتور 6
پورتمالىنى 6
پونكىتى 6
پىش@@ 6
پىشۇرغان 6
پىشۇرغاندا 6
پىشۇرىۋاتىدۇ 6
پىشۇرۇلغان 6
پىلغا 6
پۇكەيدە 6
پۇلاڭلى@@ 6
پۈتتۈرۈش 6
پۈر@@ 6
پۈۋلەش 6
پېتىش 6
پېشانىسىگە 6
پېشايۋان@@ 6
پە@@ 6
پەخىر@@ 6
پەردە 6
چارۋىچىلىق 6
چاغدا 6
چاق@@ 6
چالغاچ 6
چالغۇلىرىنى 6
چايناۋاتىدۇ 6
چاچرىدى 6
چو@@ 6
چوتكا 6
چوتكىلىدى 6
چوققى@@ 6
چوڭلارنىڭ 6
چىشلىدى 6
چىشلىۋاپتۇ 6
چىقىشنى 6
چىملىققا 6
چۈشمەكچى 6
چۈشۈر@@ 6
چېدىرغا 6
چېركاۋغا 6
چېكىدىغان 6
چېلىشنى 6
چېلەكتە 6
چەي@@ 6
ژۇرنال@@ 6
ڭدىن 6
ڭىزنى 6
گازارما 6
گىلىمى 6
گۆشنى 6
گۇرۇپپىسى 6
گۈللەرنى 6
گۈلى 6
گۈچ 6
گېزى@@ 6
گەنلىكىنى 6
ھا@@ 6
ھارغىن 6
ھارۋا 6
ھامىلدار 6
ھاۋاغا 6
ھويلىنى 6
ھى@@ 6
ھۆججەتلەرنى 6
ھۇزۇرلىنىۋاتاتتى 6
ھەربىيچە 6
ھەرىسى 6
ھەرىكەتنى 6
ھەق 6
ھەقىقىي 6
ھەيكىلىنى 6
ھەپىلىشىۋاتىدۇ 6
ۇردى 6
ۈش@@ 6
ۋاتقانلىقى 6
ۋاراتارغا 6
ۋاراق 6
ۋان@@ 6
ۋىۋىسكىسى 6
ۋىۋىسكىنى 6
ۋېي@@ 6
ۋەت@@ 6
ەت@@ 6
ەتكە 6
20 5
30 5
: 5
; 5
elmo 5
s 5
ئاتا@@ 5
ئاخ@@ 5
ئاخىر@@ 5
ئاخىرلاشقاندىن 5
ئارتى@@ 5
ئارتىۋالدى 5
ئارىلاشتۇرۇۋاتاتتى 5
ئازگىلىنىڭ 5
ئاشخانىسى 5
ئاشخانىغا 5
ئاغ@@ 5
ئافرى@@ 5
ئاكا 5
ئالا 5
ئالغاندا 5
ئالقىش 5
ئالۋاستى 5
ئالەم 5
ئامبۇر 5
ئانىسىنىڭ 5
ئانچە 5
ئانژېلې@@ 5
ئاياغ@@ 5
ئايالدىن 5
ئايرودروم@@ 5
ئايرودرومنىڭ 5
ئايروپىلا@@ 5
ئايروپىلاندا 5
ئايلاندۇرۇپ 5
ئايلانماقتا 5
ئاپتوبۇستىن 5
ئاپتوموبىللار 5
ئاپتوموبىلنىڭ 5
ئاپتوموبىلىدا 5
ئاپى@@ 5
ئاپپاراتى 5
ئاپپاراتىغا 5
ئاچىدۇ 5
ئاڭ@@ 5
ئاھالىلىرى 5
ئاۋا@@ 5
ئوتلاقنى 5
ئورمان 5
ئورنىنى 5
ئورۇندۇقنى 5
ئورۇندۇقىغا 5
ئوغلىغا 5
ئوقۇغۇ@@ 5
ئوقۇغۇچىلارغا 5
ئولتۇرۇ@@ 5
ئويناش 5
ئويناۋاتقاندەك 5
ئويۇلغان 5
ئويۇنچۇقنىڭ 5
ئوپېرات@@ 5
ئىتتىرى@@ 5
ئىستاكانلىق 5
ئىستانسى@@ 5
ئىستىقبالى 5
ئىسكىرىپ@@ 5
ئىشلىتى@@ 5
ئىشلىتىلىدىغان 5
ئىشلەش 5
ئىشى 5
ئىكەنلىكىنى 5
ئىلگىرى@@ 5
ئىلگىرىلىمەكتە 5
ئىلگىرىلەۋاتىدۇ 5
ئىلەڭگۈچكە 5
ئىمارەتلەرنىڭ 5
ئىن@@ 5
ئىنسانلار 5
ئىنكاس 5
ئىپادىلىدى 5
ئۆتكۈزىدۇ 5
ئۆتۈشىگە 5
ئۆتۈكى 5
ئۆتۈكىنى 5
ئۆردەكنى 5
ئۆرۈدى 5
ئۆزلىرى 5
ئۆزگەر@@ 5
ئۆيدىكىلەر 5
ئۆيلەر 5
ئۆيىگە 5
ئۆچۈرگۈچىلەر 5
ئۆچۈرۈشكە 5
ئۆڭكۈرگە 5
ئۇرغان 5
ئۇرۇشىۋاتىدۇ 5
ئۇرۇشۇپ 5
ئۇل 5
ئۇلانغان 5
ئۇچرى@@ 5
ئۇچى 5
ئۇچۇ@@ 5
ئۇۋۇ@@ 5
ئۈزگەندە 5
ئۈزۈۋاتقان 5
ئۈستۈنكى 5
ئۈسكۈنىلەر 5
ئۈنئالغۇ 5
ئۈچى 5
ئېتىزىدا 5
ئېتىلدۇرمىسى 5
ئېتىۋاتقان 5
ئېر@@ 5
ئېرىشمەكچى 5
ئېرىقتىن 5
ئېزى@@ 5
ئېسى@@ 5
ئېسىلدى 5
ئېشەككە 5
ئېكرانلىق 5
ئېكرانىدا 5
ئېيىقى 5
ئېگى@@ 5
ئەتراپىدىكىلەرنىڭ 5
ئەتى@@ 5
ئەدىيالغا 5
ئەر-ئايال 5
ئەركىنلىك 5
ئەرلەرگە 5
ئەزا@@ 5
ئەزالىرىنىڭ 5
ئەسلىھەلىرى 5
ئەسەبىي 5
ئەللىك 5
ئەم@@ 5
ئەنگلىيە 5
ئەينەكتىن 5
ئەينەكنىڭ 5
ئەھۋالدا 5
ئەھۋالغا 5
ئەۋرىش@@ 5
بارماق 5
بارمى@@ 5
باشقۇر@@ 5
باشلاش 5
باشلاندى 5
باشلىنى@@ 5
باق@@ 5
باكى 5
بالكو@@ 5
بالكونى 5
بالكونىدا 5
بالىسىغا 5
بايرا@@ 5
بايقىدى 5
باھالىق 5
بوتكىسى 5
بوتكىسىدا 5
بوشلۇ@@ 5
بولۇش 5
بويىچە 5
بوۋايغا 5
بىرىدىن 5
بىرەيلەن 5
بىزنىڭ 5
بىما@@ 5
بىمارنى 5
بىناسى 5
بۆل@@ 5
بۆلجۈرگەن 5
بۇرغىلاش 5
بۇقىغا 5
بۇل@@ 5
بۇلۇتلار 5
بېزە@@ 5
بېسىۋاتاتتى 5
بېلىگە 5
بەرەڭگە 5
بەس 5
بەلگىسىنىڭ 5
بەلگىسىگە 5
بەلگىنى 5
بەيگە 5
تارا@@ 5
تاراۋاتىدۇ 5
تارتقان 5
تارتىۋاتقان 5
تارتىۋالدى 5
تارقاتتى 5
تارقى@@ 5
تاشلىماقچى 5
تاغا@@ 5
تاغىل 5
تاقى@@ 5
تاقىدى 5
تاقىۋالغانىدى 5
تالقىنى 5
تالىشىدۇ 5
تاما@@ 5
تاماكىنى 5
تان 5
تاپشۇرۇق 5
تاۋارلىرىنى 5
تراك@@ 5
تراكتور 5
ترېنېر 5
ترېنېرنىڭ 5
تلىق 5
تورتنى 5
تورتى 5
تورۇ@@ 5
تورۇسقا 5
تورۇسى 5
توزان@@ 5
توسۇۋاتىدۇ 5
توغرىدى 5
توقۇ@@ 5
تولدۇرۇۋاتىدۇ 5
تونى@@ 5
توپچىغا 5
تىت@@ 5
تىجارەت@@ 5
تىجارەتچىنىڭ 5
تىدىغان 5
تىركىشى@@ 5
تىركىشىپ 5
تىزى@@ 5
تىزىۋاتىدۇ 5
تىسى 5
تىقىپ 5
تىكلەندى 5
تىلغان 5
تىلىدا 5
تىمساھ 5
تىياتىر 5
تىياتىر@@ 5
تىپىك 5
تۆ@@ 5
تۆمۈر@@ 5
تۆگى@@ 5
تۆگىسى 5
تۇتاشتۇردى 5
تۇتقۇچ@@ 5
تۇتقۇچىنى 5
تۇرانە 5
تۇرۇبىدىن 5
تۈرمىلى 5
تۈرگەن 5
تۈگۈن 5
تېخ@@ 5
تېرىدى 5
تېرىلىك 5
تېرىۋالدى 5
تېزلەتتى 5
تېشىۋاتىدۇ 5
تېلېكامېرانى 5
تېمى 5
تېيىلغۇچىلار 5
تېيىلىۋاتاتتى 5
تېپىشكە 5
تەجرىبى@@ 5
تەخسى@@ 5
تەس@@ 5
تەسەللىي 5
تەشكىلات 5
تەلەپ 5
تەم 5
تەنھەرىكەتچى@@ 5
تەڭشىگۈچ 5
تەگلىك 5
تەۋەككۈل 5
جازىغا 5
جاھازى@@ 5
جۇڭگو@@ 5
جەن@@ 5
خادى@@ 5
خارابىلىق 5
خالتىدىن 5
خالتىسىدا 5
خانىسىنىڭ 5
خىشنى 5
خې@@ 5
خېرىدارلارغا 5
خەۋەرچى 5
دائى@@ 5
دادام 5
داشۆسىنىڭ 5
دوختۇرخانىنىڭ 5
دوختۇرنىڭ 5
دوستانە 5
دولقۇندىن 5
دومىنو 5
دىرىژورلۇق 5
دۆلىتىدە 5
دۆلە@@ 5
دۆۋىسىدە 5
دۇكان@@ 5
دۇكانغا 5
دۇنيا@@ 5
دۈر@@ 5
دېرىزىسىدە 5
دېرىزىنى 5
دېكلاماتسىيە 5
دېپى 5
دەر@@ 5
دەرسىگە 5
دەرۋا@@ 5
دەرۋازىسى 5
دەرەخلەرنى 5
دەلدەڭشىپ 5
دەپتەرگە 5
رايوندىن 5
راۋاتىدۇ 5
رلىق 5
رول@@ 5
رىدە 5
رىشات@@ 5
رىيە 5
رىۋاتىدۇ 5
رۇ@@ 5
رېشات@@ 5
رېشاتكىسى 5
رېشاتكىسىدىن 5
رېلىس@@ 5
رېلىسى 5
رېپىرنىڭ 5
رەتكە 5
رەخ@@ 5
رەسىم@@ 5
رەسىملىك 5
رەسىمىگە 5
رەقىبىنىڭ 5
زاۋۇتتا 5
زنىڭ 5
زىدا 5
زىلۋا 5
زىيارەت 5
زەنجى@@ 5
سائەت 5
ساتقۇچى 5
ساتىراش@@ 5
ساتىراشخانىدا 5
ساراي@@ 5
سارىيىغا 5
ساقلايدۇ 5
ساقلاۋاتقاندا 5
سالاھىيىتى 5
سالغا 5
سالو@@ 5
ساندۇ@@ 5
ساندۇقنىڭ 5
ساينت 5
سايىسى 5
ساپ 5
ساپاقلىق 5
ساھىلدا 5
ستا 5
سسى@@ 5
سورىدى 5
سوغۇ@@ 5
سوكنا 5
سوكۇلداپ 5
سومكىسىغا 5
سىرلاۋاتىدۇ 5
سىزنىڭ 5
سىزىقىدا 5
سىلكىۋەتتى 5
سىمىغا 5
سىن 5
سىن@@ 5
سىناق 5
سىنى@@ 5
سىنىپ@@ 5
سىياھ 5
سىڭى@@ 5
سۆرەش 5
سۆزلى@@ 5
سۆي@@ 5
سۇرۇخ 5
سۇنسا 5
سۈ@@ 5
سۈرت@@ 5
سۈرۈۋاتىدۇ 5
سۈمۈرىدۇ 5
سۈيىنى 5
سۈپۈر@@ 5
سېتىۋالغان 5
سېتىۋېلىشنى 5
سېلىشقا 5
سەرپ 5
سەكرە@@ 5
سەكرەشنى 5
سەكرەۋاتقان 5
سەنئەتكارنىڭ 5
سەنئەتنىڭ 5
سەپداشلىرىنىڭ 5
سەپدى@@ 5
سەگەنچۈكتە 5
شاخلىرىنى 5
شارغا 5
شارقىراتمىنىڭ 5
شامالدۇر@@ 5
شامنى 5
شلان@@ 5
شىتاتلىق 5
شىتاتىدىكى 5
شىتاتىنىڭ 5
شىمالىي 5
شۇڭغۇما 5
شېخى 5
شەك@@ 5
شەكىلدىكى 5
شەي@@ 5
غانلىقى 5
غو@@ 5
غولى 5
غولىدا 5
غىلى 5
غىنى 5
غۇچىسى 5
غەزەپلەنگەن 5
ف@@ 5
فلاننېل 5
فوتوگراف@@ 5
فوتوگرافقا 5
فوتوگرافنىڭ 5
فورمىسىنى 5
قاتلاپ 5
قاتناشقۇچى 5
قارتىسى 5
قاردىكى 5
قارشىلىق 5
قارىشىپ 5
قاشادا 5
قالدۇردى 5
قامال 5
قانال 5
قانداغاي 5
قاننىڭ 5
قايتىش 5
قايتۇردى 5
قاپقىقى 5
قاپلىدى 5
قاچىدىكى 5
قاچىسى 5
قاۋاقخانا 5
قورالىدا 5
قوشتى 5
قوغلاندى 5
قوغلاۋاتاتتى 5
قوللان@@ 5
قولۋاقنى 5
قونچلۇق 5
قوينى 5
قوڭغۇراق 5
قىرىۋاتىدۇ 5
قىز@@ 5
قىزلارنىڭ 5
قىزىق 5
قىزىق@@ 5
قىسقۇچپاقا 5
قىسمىغا 5
قىسىنى 5
قىسىپ 5
قىلى 5
قىلىنىدۇ 5
قىلىچنى 5
قىچا 5
قىۋاتاتتى 5
قۇدۇ@@ 5
قۇرۇتتى 5
قۇرۇلمىسىغا 5
قۇرۇلمىنىڭ 5
قۇلىقىغا 5
قۇلۇ@@ 5
قۇملۇقنى 5
قۇنى 5
قۇچاقلاندى 5
قۇچىغا 5
قېقىۋاتىدۇ 5
قېيىقنى 5
قەبرىستان@@ 5
قەد 5
قەغەزدىن 5
قەن@@ 5
قەھرى@@ 5
قەۋى@@ 5
كاتېردا 5
كارتون 5
كارىۋات 5
كالتەككە 5
كالىسى 5
كان@@ 5
كاۋاپدان 5
كاۋىپى 5
ككە 5
كلا@@ 5
كوزىنى 5
كوماندىدىن 5
كومپيۇتېرنى 5
كومپيۇتېرىنى 5
كونۇسسىمان 5
كوچى@@ 5
كىرئالغۇغا 5
كىرئالغۇنىڭ 5
كىرىۋالغان 5
كىرپىك 5
كىرگۈزمەكچى 5
كىرگەن 5
كىسىدا 5
كىسىغا 5
كىل@@ 5
كىلى 5
كىيىمگە 5
كىيىنىپ 5
كىچىكرەك 5
كۆتىكىدە 5
كۆر@@ 5
كۆرسىتى@@ 5
كۆرسىتىۋاتقانلىقىنى 5
كۆرۈنۈشىنى 5
كۆرۈنۈپ 5
كۆزىگە 5
كۆكتات@@ 5
كۆلدىن 5
كۆلنىڭ 5
كۆلەڭگى@@ 5
كۆلەڭگىسى 5
كۆي@@ 5
كۆپىنچىسى 5
كۆپۈككە 5
كۆچ@@ 5
كۇبى@@ 5
كۇنۇپكىنى 5
كۈتۈ@@ 5
كۈتۈۋالدى 5
كۈن@@ 5
كۈندۈز@@ 5
كۈنلىرى 5
كۈچكە 5
كۈچۈككە 5
كۈچەيتكۈچ 5
كېسىۋەتتى 5
كېلىنچەكنىڭ 5
كېپىنەك@@ 5
كېچىلىكىگە 5
كەش@@ 5
كەمپۈ@@ 5
كەنتتە 5
كەچقۇرۇن 5
لاردىكى 5
لاش@@ 5
لاشتۇردى 5
لاشقان 5
لاينى 5
لغانىدى 5
لوس 5
لوڭقىسىنى 5
لىتىلغان 5
لىدىكى 5
لىسى 5
لىشىش 5
لىفىتتا 5
لىققا 5
لىقلار 5
لىكنى 5
لىكىدىكى 5
لىم@@ 5
لىنىدۇ 5
لىنىيىسىدە 5
لىيەنىڭ 5
لۇقىنى 5
لۈ@@ 5
لۈك@@ 5
لېنتىنى 5
لەر@@ 5
لەش@@ 5
لەيدىغان 5
لەيلى@@ 5
لەۋاتقانلىقىنى 5
ماتورلۇق 5
ماتورىنى 5
ماشىنىدىكى 5
ماق@@ 5
مالنى 5
مان 5
ماگىزىنغا 5
ماھا@@ 5
ماھى@@ 5
ملىق 5
موتسىكلىتنىڭ 5
موتوسىكلىتنىڭ 5
مودې@@ 5
مودېلىنى 5
مىئامى 5
مىدىن 5
مىز@@ 5
مىسىدا 5
مىلتى@@ 5
مىلتىقى 5
مىنمەكتە 5
مىنىبۇسنىڭ 5
مىيىقىدا 5
مۆكۈ@@ 5
مۇرا@@ 5
مۇراسىمىغا 5
مۇزىكىنى 5
مۇسابىقىلىشىۋاتاتتى 5
مۇسۇلمان 5
مۇنچىسىدا 5
مۇھاپىزەتچى 5
مۈشۈك@@ 5
مېترودىكى 5
مېتروغا 5
مەخسۇس 5
مەست 5
مەستانىسى 5
مەسى@@ 5
مەنزىرىسىدە 5
مەيداندىن 5
مەھسۇلات 5
مەھەللە 5
نازارىتى 5
نايك 5
نت 5
نس@@ 5
نومۇرى 5
نىكى 5
نىي 5
نۇرىدىن 5
نۇرىغا 5
نەرسىسىنى 5
نەرسىلىرىنى 5
نەزىرىنى 5
نەپەس 5
ى@@ 5
ىدىغانلىقىنى 5
ىنىڭ 5
يات@@ 5
ياستۇققا 5
ياغاچنىڭ 5
ياقتى 5
يالتىراق 5
يامغۇرغا 5
يانتۇلۇققا 5
يانفون 5
يانچۇق 5
يايىدىغان 5
ياپراقچىسى 5
ياپقۇچ 5
ياۋايى 5
ياۋروپا@@ 5
ينى 5
يىسى 5
يىغلىدى 5
يىغىلغان 5
يىغىلى@@ 5
يىغىلىشى 5
يىغىپ 5
يىغىۋاتىدۇ 5
يىقىلدى 5
يىلان 5
يىن 5
يىنىڭ 5
يىپىنى 5
يىپەك 5
يۆتكى@@ 5
يۆتكەۋاتىدۇ 5
يۇيۇن@@ 5
يۈزلۈك 5
يۈگۈرگۈچىنى 5
يېتىلىۋالغانىدى 5
يېتەرلىك 5
يېتەك@@ 5
يېتەكچىلىكىدە 5
يېمەكلىكلەرنىڭ 5
يېيى@@ 5
يېيىشنى 5
يېپىقلىق 5
يەلپۈگۈچ 5
پائالىيى@@ 5
پائالىيەتنى 5
پار@@ 5
پارا@@ 5
پاراڭلىشى@@ 5
پاراڭلىشىدۇ 5
پارلاق 5
پاسو@@ 5
پاقا 5
پالۇبا 5
پانك 5
پايپى@@ 5
پرىتسې@@ 5
پلانېر 5
پوسۇلكىنى 5
پونكىتىدا 5
پونكىتىنىڭ 5
پويىزدىكى 5
پويىزنى 5
پويىزى 5
پىر@@ 5
پىكاپنىڭ 5
پىل@@ 5
پىلنىڭ 5
پىناتا@@ 5
پۇتبول@@ 5
پۇراۋاتىدۇ 5
پۇكەيگە 5
پۈتتۈرگەن 5
پېشانىسىنى 5
پەتنۇ@@ 5
پەرىش@@ 5
پەرىشتە 5
پەشتا@@ 5
پەلەك 5
پەلەمپەينى 5
چاقنى 5
چالغاندا 5
چالغۇسى 5
چاما@@ 5
چاي@@ 5
چايكا 5
چاپىنىنى 5
چوققىسىدىكى 5
چوققىسىدىن 5
چول@@ 5
چىراغلار 5
چىشلىمەكچى 5
چىشى@@ 5
چۆمۈلگەن 5
چۆمۈپ 5
چۈشكۈن 5
چۈشكەندىن 5
چۈشمەكتە 5
چۈشىدۇ 5
چۈشۈردى 5
چۈشۈرىدىغان 5
چېدىردىكى 5
چېدىرى 5
چېلىشىدۇ 5
چېلەكتىن 5
چېنىق@@ 5
چېچىۋاتىدۇ 5
چېگ@@ 5
چە@@ 5
چەتكە 5
چەۋەنداز@@ 5
چەۋەندازى 5
ڭىز 5
گازلىق 5
گىرۋىكىنى 5
گىلاس 5
گىنىنى 5
گۈللىنىش 5
گۈللۈككە 5
گۈلنىڭ 5
گېزىتنى 5
گەۋ@@ 5
ھ 5
ھارۋىسىدىن 5
ھاياجانلاندى 5
ھاياجانلانغاندەك 5
ھايۋاناتلار 5
ھايۋانلار 5
ھاۋانى 5
ھويلا 5
ھىندىستانلىقلار 5
ھۆر@@ 5
ھۇزۇرلىنىدۇ 5
ھېس 5
ھېكايە 5
ھە 5
ھەربىيلەر 5
ھەرىكەتلەن@@ 5
ھەققى 5
ھەمبەھرە 5
ھەمراھلىرى 5
ھەمراھى@@ 5
ھەممىلا 5
ھەپىلەشتى 5
ۇ 5
ۈرۈپ 5
ۋاس@@ 5
ۋاقتى 5
ۋورما 5
ۋوگ@@ 5
ۋى 5
ۋىۋىسكىسىنى 5
ۋېتى@@ 5
ۋېتىپتۇ 5
ۋېلىسىپىتىدىن 5
ۋېلىپ 5
ۋە@@ 5
ۋەزىپە 5
ۋەي@@ 5
ې@@ 5
ە@@ 5
& 4
4 4
50 4
d 4
e 4
kitchenaid 4
m 4
speedo 4
ئائىلى@@ 4
ئائىلىسى 4
ئابى@@ 4
ئاتلاش 4
ئاجىز 4
ئادى@@ 4
ئادىمى 4
ئادەتتىكىگە 4
ئادەتتىن 4
ئارغامچىدىن 4
ئارغامچىسىنى 4
ئارلاش 4
ئاس@@ 4
ئاسماندىن 4
ئاشپەز@@ 4
ئاغزىدىن 4
ئافرىقىلىقلار 4
ئاقارتتى 4
ئاقلاۋاتىدۇ 4
ئاككوردىيو@@ 4
ئالغۇچ 4
ئالماشتۇرۇش 4
ئالىمىز 4
ئالىچىپار 4
ئامبار@@ 4
ئامباردا 4
ئامىش 4
ئايا@@ 4
ئايال@@ 4
ئايرىل@@ 4
ئايلان@@ 4
ئايلىنى@@ 4
ئايلىنىدۇ 4
ئاپتاپ 4
ئاپتاپ@@ 4
ئاپتوبۇسىدا 4
ئاپپارات@@ 4
ئاچقان 4
ئاڭلىغاچ 4
ئاھالىلەر 4
ئاۋازدا 4
ئوتتۇراھال 4
ئوتلاق 4
ئوخشايدىكەن 4
ئوخشىمايدىغان 4
ئوراش 4
ئورنىتىۋاتىدۇ 4
ئورۇندى@@ 4
ئورۇندۇ@@ 4
ئورۇنلاشتۇرۇ@@ 4
ئورۇنلايدىغان 4
ئورۇنلاپ 4
ئورۇنلى@@ 4
ئورۇنلىغۇچى 4
ئوشۇ@@ 4
ئوغ@@ 4
ئوغلىنىڭ 4
ئوقۇتقۇ@@ 4
ئوقۇتقۇچى 4
ئوقۇغۇچىلارنىڭ 4
ئوقۇۋاتقان 4
ئوكسفورد 4
ئوكلاخوما 4
ئولتۇردۇ 4
ئولتۇرغانلىقىنى 4
ئولتۇرۇش 4
ئولتۇرۇۋاتىدۇ 4
ئويلاندى 4
ئوينا@@ 4
ئوينىسا 4
ئوينىغىنىنى 4
ئويۇنىدىن 4
ئويۇنچۇقتىن 4
ئويۇنچۇقلار 4
ئىتتىپا@@ 4
ئىتلار 4
ئىدى@@ 4
ئىرقتىكى 4
ئىز 4
ئىزدى@@ 4
ئىزى 4
ئىستولبى@@ 4
ئىستولبىغا 4
ئىستىراھەت 4
ئىسكىلىت 4
ئىسپان 4
ئىسپانىيە 4
ئىسپانىيە@@ 4
ئىشتاننىڭ 4
ئىشتى@@ 4
ئىشتىن 4
ئىشتىنىنى 4
ئىشتىنىنىڭ 4
ئىشكاپقا 4
ئىشلىتىش 4
ئىشلىتىشكە 4
ئىشلىتىپ 4
ئىشلىدى 4
ئىشلىرىنى 4
ئىشلەتكەندە 4
ئىشىككە 4
ئىشىكىدە 4
ئىقتىدارلىق 4
ئىلمەك 4
ئىلەڭگۈچتىن 4
ئىنچىكىلىك 4
ئىپتىدائىي 4
ئىچ@@ 4
ئىچكۈزدى 4
ئىچمەك 4
ئىچىملىكىنى 4
ئۆتكۈزۈلۈۋاتىدۇ 4
ئۆتكەن@@ 4
ئۆتمەكچى 4
ئۆتۈ@@ 4
ئۆردەككە 4
ئۆرۈلدى 4
ئۆسمۈر@@ 4
ئۆسۈملۈك@@ 4
ئۆسۈملۈكنى 4
ئۆلچە@@ 4
ئۆلچەمدىكى 4
ئۆلچەۋاتىدۇ 4
ئۆي@@ 4
ئۆچكىنى 4
ئۆچۈردى 4
ئۆگزىنى 4
ئۆگى@@ 4
ئۇدۇل@@ 4
ئۇدۇلدىكى 4
ئۇدۇلمۇئۇدۇل 4
ئۇستىخان 4
ئۇسسۇلچىسى 4
ئۇسۇلىنى 4
ئۇسۇپ 4
ئۇن 4
ئۇيۇ@@ 4
ئۇچرىشىپ 4
ئۇچىدا 4
ئۇچىغا 4
ئۇچۇرۇپ 4
ئۇچۇشقا 4
ئۈزىۋاتقان 4
ئۈزۈۋاتاتتى 4
ئۈستىلىنى 4
ئۈستىلىگە 4
ئۈستۈ@@ 4
ئۈسكۈنىنى 4
ئۈش@@ 4
ئۈلۈش 4
ئۈنۈمسىز 4
ئۈچىنچىسى 4
ئېتىزلىقتىن 4
ئېتىنى 4
ئېدىرلىق 4
ئېرى 4
ئېرىش@@ 4
ئېشەك@@ 4
ئېغىرلىقىنى 4
ئېقىنغا 4
ئېلىشى@@ 4
ئېمىزگۈ 4
ئېيتىدىغان 4
ئېيى@@ 4
ئېيىقنى 4
ئېچىۋېتىلگەن 4
ئېگىرىش 4
ئېگىلگەن 4
ئېگەر 4
ئېھتىياتچانلىق 4
ئېھرام 4
ئە@@ 4
ئەتۋىركە 4
ئەخلەتنى 4
ئەخمەقلەرچە 4
ئەرلىرى 4
ئەسكىرى 4
ئەسلىي 4
ئەسلىھەلىرىدە 4
ئەسۋاب 4
ئەلنىڭ 4
ئەپ@@ 4
ئەپەندىم 4
ئەۋ@@ 4
ئەۋرەز 4
الا@@ 4
اي@@ 4
با 4
بارغاندا 4
بارماقلىق 4
بازارنىڭ 4
بازىرىنى 4
بازىرىنىڭ 4
باشلاشقا 4
باشلىغان 4
باشلىنىشىنى 4
باغلىنىپ 4
باغلىۋالغان 4
باغچا 4
باغچىدىن 4
بايرام@@ 4
بايرامغا 4
بايرىمىنىڭ 4
باھاسى 4
برا@@ 4
بوتۇلكىدىن 4
بوتۇلكىغا 4
بوتۇلكىنى 4
بوتۇلكىنىڭ 4
بوران 4
بوستون 4
بوش@@ 4
بوشلۇقتىن 4
بولكىسىنى 4
بولكىنى 4
بويتاق 4
بوينىنى 4
بويى@@ 4
بوۋايدەك 4
بوۋى@@ 4
بىرازى@@ 4
بىراۋنىڭ 4
بىردىن 4
بىرلەشمە 4
بىزگە 4
بىل 4
بىلد@@ 4
بىلدۈرگۈچى 4
بىلدۈرگۈچىلەر 4
بىلە@@ 4
بىلەيزۈك 4
بىلەۋاتىدۇ 4
بىمارنىڭ 4
بىپايان 4
بۆلدى 4
بۆلىدۇ 4
بۇدرۇققىنە 4
بۇزۇپ 4
بۇقىدىن 4
بۇقىنىڭ 4
بۇلىماچ 4
بۇيۇملىرىدىن 4
بۇيۇملىرىغا 4
بېتو@@ 4
بېتوندىن 4
بېرىۋاتقان 4
بېسىۋاتىدۇ 4
بېغىر@@ 4
بېغىش 4
بېكىتىدىن 4
بېلىتى 4
بېلىقلارنى 4
بېلىقنىڭ 4
بېلىقى 4
بەخىرامان 4
بەدىنىدىكى 4
بەدىنىنىڭ 4
بەرگەندىن 4
بەلبېغى@@ 4
بەلگىدىن 4
بەي@@ 4
بەيگىسىدە 4
تائاملار 4
تات@@ 4
تاتىرىپ 4
تاج 4
تازىلاۋاتقان 4
تازىلىماقتا 4
تاسمىغا 4
تاسمىنى 4
تاشلارنى 4
تاشلاش 4
تاشلاۋاتاتتى 4
تاشلىۋەتمەكچى 4
تاشپا@@ 4
تاكى 4
تالى@@ 4
تام@@ 4
تاماق@@ 4
تاماقخانىنىڭ 4
تاملىق 4
تان@@ 4
تايچاقنى 4
تاۋار@@ 4
تاۋارلارغا 4
تاۋۇ@@ 4
تتىكى 4
تراكتوردا 4
تقان 4
توختاتتى 4
تورتنىڭ 4
تورتىنى 4
توس@@ 4
توسالغۇ@@ 4
توسۇقى 4
توسۇۋېلىندى 4
توشقۇزدى 4
توغ@@ 4
توغراش 4
توغرىسىدىكى 4
تونىلدا 4
تىجارەتچىلەردىن 4
تىدا 4
تىر@@ 4
تىرنىقى 4
تىرنىلىدى 4
تىرەك 4
تىزمىسىنى 4
تىزىنى 4
تىسىغا 4
تىشىغا 4
تىكەنلىك 4
تىلىدىكى 4
تىلەمچىلىك 4
تىياتىرخانا 4
تىڭشى@@ 4
تۆتەيلەن 4
تۆشۈكتىن 4
تۆلەيدىغان 4
تۆپى@@ 4
تۆپىلىكىدە 4
تۇتى@@ 4
تۇتۇۋالغان 4
تۇرالغۇ@@ 4
تۇرسا 4
تۇرغۇچىلارنىڭ 4
تۇرقى 4
تۇرۇشنى 4
تۇرۇۋاتاتتى 4
تۇقىنى 4
تۈردىكى 4
تۈرىدىكى 4
تۈرۈپ 4
تۈز@@ 4
تۈپ@@ 4
تۈگ@@ 4
تۈۋرۈكنىڭ 4
تۈۋرۈكىنىڭ 4
تۈۋرۈكىگە 4
تېببىي 4
تېر@@ 4
تېز@@ 4
تېشىلگەن 4
تېلېۋىزو@@ 4
تېمى@@ 4
تېمىدا 4
تېيىلىدىغان 4
تېيىلىدۇ 4
تېيىلىشنى 4
تېپىشنى 4
تېپىۋاتقان 4
تەبىئەت@@ 4
تەتقى@@ 4
تەخسىنىڭ 4
تەسكەي 4
تەسەللى 4
تەق@@ 4
تەك@@ 4
تەكش@@ 4
تەنھەرىكەتچىسىگە 4
تەنھەرىكەتچىلىرىنىڭ 4
تەييار@@ 4
تەييارلاپ 4
تەييارلاۋاتقان 4
تەيچۈئەن 4
تەڭ@@ 4
تەڭشىگۈچى 4
تەڭشەۋاتاتتى 4
تەڭكەش 4
تەڭگە 4
جاز 4
جازىدىكى 4
جازىسىدىن 4
جازىلىق 4
جازىنىڭ 4
جاي 4
جاۋاب 4
جى 4
جىسىم@@ 4
جىلغىسىدا 4
جىنسلىرىغا 4
جۇ@@ 4
جۇڭگودا 4
جۇڭگولۇقلار 4
جۈزە 4
جۈپلەپ 4
جې@@ 4
جەرىمانە 4
خ 4
خادىم 4
خارابىلىكنى 4
خاراكتېرلىك 4
خاشىچى 4
خالتىلارنى 4
خالتىنىڭ 4
خالىغانچە 4
خان@@ 4
خانى@@ 4
خانىسى 4
خوتۇ@@ 4
خوجايى@@ 4
خىمى@@ 4
خۇشاللىققا 4
خېتى 4
خېرىدارلارنىڭ 4
خە@@ 4
خەتلەر 4
خەتەرلىك 4
خەتەرگە 4
خەرى@@ 4
خەي@@ 4
خەۋەر@@ 4
داش@@ 4
دان 4
داۋام@@ 4
داۋاملىق 4
دوست@@ 4
دوستىنى 4
دول@@ 4
دولقۇن@@ 4
دولقۇنىنىڭ 4
دىر 4
دىس@@ 4
دىققەتتە 4
دىم 4
دۆڭ@@ 4
دۆڭگە 4
دۆۋىسى 4
دۆۋىسىدىن 4
دۇ 4
دۇرۇش 4
دۇكىنىدىكى 4
دۈرۈ@@ 4
دۈمبىسىدىن 4
دۈمبىنى 4
دۈمبىگە 4
دېرىزى@@ 4
دېسنىي 4
دېلفىن 4
دېگەندە 4
دە@@ 4
دەرىخىدە 4
دەريادىكى 4
دەرھال 4
دەرەختىكى 4
دەسسىدى 4
دەملەۋاتىدۇ 4
دەپتەر 4
دەۋرىدىكى 4
رادىئو 4
راك 4
رامكىسى 4
رامكىلىق 4
رايونلاردا 4
رايوننىڭ 4
رلار 4
رومكىنى 4
رىدى 4
رىدىكى 4
رىسى 4
رىشاتكىدا 4
رىشاتكىنىڭ 4
رىقابەت 4
رىقابەتلىشىدۇ 4
رىپ 4
رېلىستىن 4
رېلىسلىق 4
رېلىسنى 4
رېمونتچى 4
رېپىرى 4
رېپېتىتسىيە 4
رەختنىڭ 4
رەسىمدىكى 4
رەسىملىرى 4
رەسىمىدىن 4
رەسىمىنىڭ 4
رەش 4
رەقىب 4
رەقىبىدىن 4
زاكا 4
زاپاس 4
زدا 4
زلىق 4
زىچ 4
زە@@ 4
زەنجىر@@ 4
زەنجىرىنى 4
زەھەردىن 4
سات@@ 4
ساتماقچى 4
ساختا 4
ساز@@ 4
سازلىق 4
سازلىقتا 4
ساغلام 4
سافا 4
ساقىلى 4
سالات 4
سالفېتكا 4
سانجىلغان 4
سانى 4
ساياھى@@ 4
سايمان@@ 4
سايىسىنى 4
ساپ@@ 4
ساھىلىدىن 4
ستا@@ 4
ستىن 4
ستې@@ 4
سودىگىرى 4
سودىگەرنىڭ 4
سوزىۋاتىدۇ 4
سوزۇ@@ 4
سولىنىپ 4
سوۋۇت@@ 4
سوۋۇتقۇچ@@ 4
سىتى@@ 4
سىرت@@ 4
سىزىدۇ 4
سىزىق@@ 4
سىزىقىدىن 4
سىزىقىغا 4
سىل@@ 4
سىلاۋاتاتتى 4
سىلكىدى 4
سىلىقلاۋاتىدۇ 4
سىمسىز 4
سىيى@@ 4
سىيە 4
سىڭ@@ 4
سۆيۈش@@ 4
سۆيۈشمەكتە 4
سۆيۈۋاتىدۇ 4
سۇمۇ 4
سۇن@@ 4
سۇنۇپ 4
سۇيۇقلۇقنى 4
سۇپى@@ 4
سۇپىدىن 4
سۇپىسىنىڭ 4
سۇپىغا 4
سۈرى@@ 4
سۈرەتلىك 4
سۈيىدىن 4
سۈيىگە 4
سۈپىتى 4
سېتىۋاتاتتى 4
سېتىۋالغىلى 4
سېختا 4
سېلىش 4
سېلىنىۋاتقان 4
سېۋى@@ 4
سېۋىتى 4
سېۋىتىنى 4
سەكرەيتتى 4
سەكرەۋاتاتتى 4
سەنئىتى 4
سەنئەت@@ 4
سەنەتكار 4
سەي 4
سەھنىدىن 4
سەۋرچانلىق 4
سەۋەبىدىن 4
شارلار 4
شارىغا 4
شارىنى 4
شامپان 4
شاپتۇل 4
شاھ@@ 4
شقان 4
شكەن 4
شوتىنىڭ 4
شىتاتى 4
شىركى@@ 4
شىش 4
شىلەپىسى 4
شۇغۇللىنىدىغان 4
شۇغۇللىنىدۇ 4
شەر@@ 4
شەنبە 4
شەپ@@ 4
شەھىرىنىڭ 4
غال@@ 4
غالتەك@@ 4
غان@@ 4
غىغا 4
غۇچىغا 4
غەرب@@ 4
غەۋۋاس@@ 4
غەۋۋاسى 4
فا@@ 4
فوكۇس 4
فونتاننىڭ 4
فوندى 4
فىلىم 4
قاتارلىق 4
قاتلىمى 4
قاتناش@@ 4
قاتناشقۇ@@ 4
قاتناشقۇچىلار 4
قاتنىشى@@ 4
قاتنىشىشقا 4
قاراتتى 4
قارىمۇقارشى 4
قازاندىن 4
قانات 4
قانال@@ 4
قانۇن 4
قايتۇرۇپ 4
قايسى 4
قايغۇلۇق 4
قاينام 4
قاپقىقىدا 4
قاچىسىغا 4
قاڭقىپ 4
قاۋاقخانىنىڭ 4
قاۋاپ 4
قاۋاۋاتىدۇ 4
قاۋۇل 4
قلار 4
قور@@ 4
قوراللانغان 4
قورالىنى 4
قورسى@@ 4
قورغاندا 4
قورغاندىن 4
قورقۇپ 4
قوزۇ@@ 4
قوزۇق 4
قوشۇمىسىنى 4
قوشۇنىدىكى 4
قوغلى@@ 4
قوغۇن 4
قولتۇ@@ 4
قولتۇقلىشىش 4
قولۋاقتا 4
قويماقچى 4
قويۇۋاتاتتى 4
قىدى 4
قىزى@@ 4
قىزىتىدۇ 4
قىزىنىڭ 4
قىستۇرۇۋالغان 4
قىسقۇچ@@ 4
قىلغاچ 4
قىلىشىنى 4
قىن-قىنىغا 4
قىيادا 4
قىيامى 4
قىيساي@@ 4
قۇتقۇزۇپ 4
قۇتىسىنىڭ 4
قۇراشتۇرۇش 4
قۇردى 4
قۇرۇ@@ 4
قۇرۇت@@ 4
قۇرۇتۇش 4
قۇرۇق@@ 4
قۇرۇل@@ 4
قۇرۇلۇش@@ 4
قۇش@@ 4
قۇلىقىنىڭ 4
قۇملۇقتىن 4
قۇي@@ 4
قۇيرۇق 4
قۇيرۇقى 4
قۇچا 4
قۇچاقلاش 4
قۇچىنى 4
قېيىقنىڭ 4
قېچىر 4
قە@@ 4
قەدەملىك 4
قەغەز@@ 4
قەلىمىنى 4
قەپەسنىڭ 4
كائادىن 4
كابې@@ 4
كاتې@@ 4
كارىدوردىكى 4
كارىدورنى 4
كاللەك 4
كالپۇكىنى 4
كاپالەتلىك 4
كاۋا@@ 4
كاۋكاز 4
كاۋچۇ@@ 4
كرا@@ 4
كران 4
كلارنېت 4
كلىك 4
كوكۇس 4
كول@@ 4
كولا 4
كومپيۇتېردىكى 4
كومپيۇتېرىدا 4
كونتېينې@@ 4
كوچىلاردا 4
كوچىلارنى 4
كوچىلىرى 4
كىتا@@ 4
كىتابقا 4
كىرىدۇ 4
كىرگۈز@@ 4
كىشلەر 4
كىشىدە 4
كىشىنىڭ 4
كىلەرنىڭ 4
كىيىمىنىڭ 4
كىيىپتۇ 4
كىچىكلى@@ 4
كۆتۈرۈۋالدى 4
كۆرسەتكۈچىلەر 4
كۆرگۈچىلەرنىڭ 4
كۆرگۈچىلەرگە 4
كۆرگەزم@@ 4
كۆرگەزمى@@ 4
كۆرۈ@@ 4
كۆرۈنۈشتىن 4
كۆرۈنۈشىگە 4
كۆرۈۋاتقانلىقىنى 4
كۆرەل@@ 4
كۆرەلەيدۇ 4
كۆز-كۆز 4
كۆزگە 4
كۆكرەك 4
كۆلچىكىنى 4
كۆلچەكتىن 4
كۆلچەكنىڭ 4
كۆيۈ@@ 4
كۆپۈ@@ 4
كۆڭلىنى 4
كۆۋرۈكنى 4
كۆۋرۈكىدىن 4
كۇتۇپخانىدىكى 4
كۇل@@ 4
كۇلۇ@@ 4
كۈتۈۋېلىش 4
كۈلۈمسىرىگىنىچە 4
كۈنلۈ@@ 4
كۈننى 4
كۈچىگە 4
كۈچۈكىنى 4
كۈچەپ 4
كېتىۋاتىدۇ 4
كېسىۋاتاتتى 4
كېسەك 4
كېمىسىگە 4
كېچە 4
كەبى 4
كەتكىلى 4
كەتكەنلىكىنى 4
كەم 4
كەي@@ 4
كەپە 4
كەچ 4
كەچتىكى 4
لاتا 4
لار@@ 4
لازا 4
لامپىلىق 4
لاۋاتقانلىقىنى 4
لنىڭ 4
لون 4
لوڭ@@ 4
لىتىپ 4
لىرىدا 4
لىرىدىكى 4
لىسىنى 4
لىشىدۇ 4
لىفىتقا 4
لىقتا 4
لىك@@ 4
لىكتىكى 4
لىما 4
لىماقچى 4
لىنىۋاتىدۇ 4
لىيە 4
لىگە 4
لىۋالدى 4
لۇقتىكى 4
لۈكنى 4
لېفى@@ 4
لەت@@ 4
لەشت@@ 4
لەنچۈ@@ 4
لەپىلدەپ 4
مات@@ 4
ماتورى 4
ماروژ@@ 4
ماغ@@ 4
مال@@ 4
مان@@ 4
ماگىزىنىدىن 4
موتوسىكىلىت 4
موماي@@ 4
مومىسى 4
مونوپول 4
مىسىدىكى 4
مىك@@ 4
مىكروفون@@ 4
مىنىۋالغانىدى 4
مىنىۋاپتۇ 4
مۆتىۋەرلەر 4
مۇر@@ 4
مۇراسىم@@ 4
مۇراسىمغا 4
مۇردا 4
مۇسابىقىلىشىۋاتقان 4
مۇسابىقىلەش@@ 4
مۇسكۇ@@ 4
مۇش@@ 4
مۇنارىنىڭ 4
مۇھاپىزەت 4
مۇۋاپىق 4
مېترونى 4
مېيىپ 4
مېڭىۋاتاتتى 4
مېڭىۋاتقان 4
مېڭىۋاتقانلىقىنى 4
مېھ@@ 4
مېھمانلار 4
مېۋىلەرنى 4
مەخلۇق 4
مەدەنىيەت 4
مەركىزىي 4
مەركىزىگە 4
مەرۋايى@@ 4
مەزگىلىدىكى 4
مەسخىرە 4
مەشئىلىنى 4
مەشتە 4
مەشغۇلاتى 4
مەك 4
مەيدىغان 4
مەيپۇرۇش 4
مەيۈس@@ 4
مەھەللى@@ 4
نامايىشىدا 4
ندى@@ 4
نلار 4
نلۇق 4
نىسى 4
نىشاننى 4
نىيە@@ 4
نىۋاتقان 4
نيۇيوركتىكى 4
نۆ@@ 4
نۆۋەت 4
نۈپ 4
نەقىش@@ 4
نەك 4
نەك@@ 4
نەيچىسى 4
ىدى@@ 4
ىدىغانلار 4
ياتاقتىكى 4
ياتقۇزدى 4
ياتقۇزۇلمىغان 4
ياز 4
ياسا@@ 4
ياغاچ@@ 4
ياغاچچىلىق 4
يال@@ 4
يالقۇن 4
يالقۇنى 4
ياماشتى 4
يامغۇردىن 4
يامىشى@@ 4
يامىشىشنى 4
يانتۇلۇقنىڭ 4
يانفو@@ 4
يايمىسىدىكى 4
يايمىسىغا 4
ياپونىيەدە 4
ياڭراتتى 4
يدىغان 4
يولۋاس@@ 4
يىراق@@ 4
يىغى@@ 4
يىلى 4
يىلىك 4
يىگى@@ 4
يىگىتلەر 4
يۆتكىلى@@ 4
يۆتكىمەكتە 4
يۆتكەش 4
يۆلىۋالدى 4
يۆگەلگەن 4
يۆگەپ 4
يۇتۇ@@ 4
يۇغ@@ 4
يۇلتۇز@@ 4
يۇمدى 4
يۇيىدۇ 4
يۇيۇندۇردى 4
يۇيۇۋاتقان 4
يۈ@@ 4
يۈردى 4
يۈرەكلىك 4
يۈز@@ 4
يۈگۈرگۈ@@ 4
يۈگۈرەيدىغان 4
يېرىدە 4
يېشىدىكى 4
يېشىللىق 4
يېشىللىقتا 4
يېغىپ 4
يېغىۋاتىدۇ 4
يېمەك 4
يېمەك@@ 4
يېپىق 4
يېڭى@@ 4
يە 4
يەتكۈز@@ 4
يەتكۈزدى 4
يەلىك 4
يەڭ 4
يەڭ@@ 4
يەھۇدىي 4
پاتقاقتىن 4
پاتقاققا 4
پاتماي 4
پاخىلى 4
پاخپايغان 4
پادى@@ 4
پار 4
پاراللېل 4
پاسكىنا 4
پاقىچىلاپ 4
پالاسقا 4
پالوبى@@ 4
پانۇس 4
پايدى@@ 4
پايدىلىنىپ 4
پتىن 4
پروپان 4
پرى@@ 4
پقا 4
پو@@ 4
پورتتا 4
پورترېت 4
پوش@@ 4
پوكىي@@ 4
پوكەي 4
پولدىكى 4
پولدىن 4
پومزىكىنى 4
پىت 4
پىدائىيلار 4
پىرقى@@ 4
پىششىقلاپ 4
پىشۇرۇۋاتاتتى 4
پىكا@@ 4
پىلاستى@@ 4
پىناتا 4
پىچىر@@ 4
پىۋى@@ 4
پۇزۇر 4
پۈركۈيدىغان 4
پۈركۈيدۇ 4
پۈرۈشتۈردى 4
پېچى@@ 4
پەردىسى 4
پەرىزات 4
پەرىسى 4
پەرىشتىدەك 4
پەرىشتىنىڭ 4
پەل 4
پەللىدىن 4
پەللە 4
چاتقال@@ 4
چاتقاللىققا 4
چارلاش 4
چاشقان 4
چاقتىكى 4
چاپ@@ 4
چاپاننىڭ 4
چاپى@@ 4
چاچرى@@ 4
چوتكى@@ 4
چىتلاقتىن 4
چىتلاقنىڭ 4
چىراغ@@ 4
چىرايىنى 4
چىرمىشىپ 4
چىسىدەك 4
چىقارغان 4
چىقىدۇ 4
چىقىنى 4
چىل 4
چىلتار 4
چىلىك 4
چىۋىق 4
چۆكۈپ 4
چۆمدى 4
چۆپى 4
چۈشتە 4
چۈشكىنىگە 4
چۈشىدىغان 4
چۈشىۋاتىدۇ 4
چۈشۈ@@ 4
چۈشۈرۈلدى 4
چۈشۈرۈۋەتتى 4
چۈشۈش 4
چۈشەن@@ 4
چۈك 4
چېتى@@ 4
چېركاۋدىكى 4
چېقىلىپ 4
چېكىندى 4
چېكىۋاتقان 4
چېلىشچى 4
چېلەك@@ 4
چېلەكتىكى 4
چېنىقتۇرۇش 4
چەكتىكى 4
چەۋەندازلىق 4
چەۋەندازنى 4
ڭى@@ 4
گىتار@@ 4
گىلى 4
گىلەم@@ 4
گىنىچە 4
گىچە 4
گۈدەك 4
گۈر@@ 4
گۈرۈچ 4
گۈزەل@@ 4
گۈللۈكنىڭ 4
گۈچ@@ 4
گەرچە 4
گەندىن 4
ھاجەت@@ 4
ھارىقىدىن 4
ھاسىسىنى 4
ھالىتىدە 4
ھايۋان@@ 4
ھوزۇر@@ 4
ھوقۇقىنى 4
ھىندىستان@@ 4
ھۇزۇر@@ 4
ھۈنەرۋەن 4
ھە@@ 4
ھەت@@ 4
ھەتتا 4
ھەرقانداق 4
ھەرىدىدى 4
ھەرىكى@@ 4
ھەسەل 4
ھەيدەۋاتاتتى 4
ھەيكەل@@ 4
ھەيكەلتىراش 4
ھەييارنىڭ 4
ھەيۋەتلىك 4
ھەپىلىشىۋاتاتتى 4
ھەۋەسكارى 4
ۇ@@ 4
ۈرگۈچى 4
ۈرۈ@@ 4
ۈش 4
ۋ 4
ۋاتقان@@ 4
ۋاتقانلىقىغا 4
ۋاتى@@ 4
ۋاراتا@@ 4
ۋارقى@@ 4
ۋاشىنگتون 4
ۋال@@ 4
ۋالماقچى 4
ۋالىدۇ 4
ۋاگون 4
ۋاگونىنىڭ 4
ۋو@@ 4
ۋېر@@ 4
ۋېلىسىپىت@@ 4
ۋېلىسپىتنى 4
ۋېلىنغان 4
ۋەت 4
ۋەزىپىسىنى 4
ۋەقە 4
ۋەقە@@ 4
ۋەقەسى 4
ەتتى 4
ەر@@ 4
ەن 4
1 3
12@@ 3
2 3
20@@ 3
25 3
40 3
6 3
96 3
c 3
ds 3
le 3
mac 3
ok 3
on 3
p 3
the 3
uڭق1@@ 3
wii 3
ئائىل@@ 3
ئاتقاندىن 3
ئارتىسلىرى 3
ئارتىپ 3
ئارتىۋاپتۇ 3
ئارخېئولو@@ 3
ئارغامچىسىغا 3
ئارغامچىنىڭ 3
ئارقى@@ 3
ئارمىيىسىنىڭ 3
ئارمىيەسىنىڭ 3
ئارىلاشتۇر@@ 3
ئارىلاشتۇرىۋاتىدۇ 3
ئارىلاشتۇرۇ@@ 3
ئارىلىققا 3
ئارپا 3
ئازابلانغاندەك 3
ئازگال@@ 3
ئازگى@@ 3
ئازگىلى 3
ئاسار 3
ئاساس 3
ئاساسەن 3
ئاستىنى 3
ئاسرىغۇچ 3
ئاسلان 3
ئاسمىنىدىكى 3
ئاسىياچە 3
ئاش@@ 3
ئاشخانىدىن 3
ئاشخانىنى 3
ئاشكارا 3
ئاشلىق 3
ئاشىدىغان 3
ئاشپەزلەر 3
ئاشۇرۇپ 3
ئاغرى@@ 3
ئاق@@ 3
ئاقار@@ 3
ئاقى@@ 3
ئاكتىپلىق 3
ئالاھىدىلىك 3
ئالغۇچى 3
ئالى@@ 3
ئالىدىغان 3
ئام@@ 3
ئاممىغا 3
ئامېرىكى@@ 3
ئامېرىكىسى 3
ئانىسىغا 3
ئانىلار 3
ئاي 3
ئاياغقا 3
ئايرودروم 3
ئايروپىلان@@ 3
ئايرى@@ 3
ئايرىش 3
ئايرىلغان 3
ئايلانمىدا 3
ئايىغى@@ 3
ئايىغىغىچە 3
ئاپ@@ 3
ئاپا@@ 3
ئاپتوبۇستىكى 3
ئاپتوبۇسنى 3
ئاپتوموبىلدا 3
ئاپتوموبىلدىن 3
ئاپتوموبىلنى 3
ئاپتوموبىلىدىن 3
ئاپشاركا 3
ئاپلى@@ 3
ئاپىسىغا 3
ئاپپاراتتا 3
ئاچقۇچ 3
ئاھا@@ 3
ئاۋلى@@ 3
ئوبامانىڭ 3
ئوبرا@@ 3
ئوت-چۆپلەر 3
ئوت@@ 3
ئوتلاقتا 3
ئوتىغۇچ 3
ئوخايو 3
ئوخشاشلا 3
ئوخشاپ 3
ئورغاق 3
ئورمان@@ 3
ئورناتتى 3
ئورگان 3
ئورۇندۇقىدىكى 3
ئورۇنلاشتۇرۇلغان 3
ئورۇنلاۋاتاتتى 3
ئوغرى@@ 3
ئوغۇل@@ 3
ئوفىتسې@@ 3
ئوقى 3
ئوقۇغۇچىغا 3
ئوقۇغۇچىلىرىغا 3
ئوك@@ 3
ئوكيان@@ 3
ئولتۇر@@ 3
ئويلىشىۋاتىدۇ 3
ئويمى@@ 3
ئوينالدى 3
ئوينىغاندىن 3
ئوينىغىلى 3
ئوينىماقتا 3
ئوينىماقچى 3
ئويۇ@@ 3
ئويۇننى 3
ئوچاق 3
ئوڭ@@ 3
ئىبادەت@@ 3
ئىبادەتخانىدا 3
ئىت@@ 3
ئىتتىرىشكە 3
ئىتتىرىلدى 3
ئىتتىپاق 3
ئىتىغا 3
ئىتىنىڭ 3
ئىخ@@ 3
ئىر@@ 3
ئىز@@ 3
ئىزناسى 3
ئىزناسىنى 3
ئىستاكا@@ 3
ئىستانوكى 3
ئىستولبا 3
ئىستىقبال@@ 3
ئىسسىقتا 3
ئىسسىنىۋاتىدۇ 3
ئىسقىرتتى 3
ئىسكىلاتى 3
ئىسكىلاتىدا 3
ئىسكىلاتىدىكى 3
ئىشلارغا 3
ئىشلىتىۋاتقانلىقىنى 3
ئىشلە@@ 3
ئىشلەۋاتقان 3
ئىشچىسىنىڭ 3
ئىشچىلارنى 3
ئىككى@@ 3
ئىلاھى 3
ئىلمەك@@ 3
ئىلەڭگۈچ@@ 3
ئىم@@ 3
ئىمتىھان 3
ئىمتىھان@@ 3
ئىناق 3
ئىندىئا@@ 3
ئىپادى@@ 3
ئىپادىسىنى 3
ئىچكەن 3
ئىچكەندە 3
ئىچىدىغان 3
ئىچىشكە 3
ئىچىملىكتىن 3
ئىچىملىكلەرنى 3
ئۆتكۈز@@ 3
ئۆتكۈزىدىغان 3
ئۆتكۈزىۋاتىدۇ 3
ئۆتكۈزۈپ 3
ئۆتكۈزۈۋاتاتتى 3
ئۆتۈش@@ 3
ئۆتۈشۈش 3
ئۆتۋاتىدۇ 3
ئۆتەتتى 3
ئۆركەشلەپ 3
ئۆرۈلگەن 3
ئۆز@@ 3
ئۆزگىرىشچان 3
ئۆسكەن 3
ئۆسۈملۈكتىن 3
ئۆسۈملۈكلەرنى 3
ئۆسۈملۈكنىڭ 3
ئۆمىكىدە 3
ئۆمىكىنىڭ 3
ئۆيى 3
ئۆچۈرۈۋاتىدۇ 3
ئۆگ@@ 3
ئۇخلايدۇ 3
ئۇخلاۋاتقاندەك 3
ئۇدۇل 3
ئۇرۇشى 3
ئۇزۇنغا 3
ئۇسلۇ@@ 3
ئۇسۇلى 3
ئۇسۇۋاتىدۇ 3
ئۇكا 3
ئۇنىۋېرسال 3
ئۇي@@ 3
ئۇپا 3
ئۇچرات@@ 3
ئۇچراشتى 3
ئۇچقاندا 3
ئۇچقۇچىسى 3
ئۇچۇرۇشقا 3
ئۇچۇرۇۋاتىدۇ 3
ئۇچۇۋاتاتتى 3
ئۈز@@ 3
ئۈزگۈچى 3
ئۈزگۈچىلەر 3
ئۈزۈشنى 3
ئۈستى@@ 3
ئۈسكۈنىسىگە 3
ئۈسكۈنىگە 3
ئۈمىد 3
ئۈمىد@@ 3
ئۈن@@ 3
ئېتىزلىققا 3
ئېتىۋاتقاندا 3
ئېدىر@@ 3
ئېرىقتىكى 3
ئېرەن 3
ئېغىزىدىكى 3
ئېقىنىنى 3
ئېكرانىنى 3
ئېكسپېدىتسىيىچى 3
ئېكسپېدىتسىيە 3
ئېلاندا 3
ئېلاندىن 3
ئېلانلار 3
ئېلاننى 3
ئېلاننىڭ 3
ئېلانىنىڭ 3
ئېلىشقان 3
ئېلىشىنى 3
ئېلىۋالدى 3
ئېلىۋېلى@@ 3
ئېمىتىۋاتقان 3
ئېمۇلسىيە 3
ئېي@@ 3
ئېيتقاندا 3
ئېيتقاچ 3
ئېيتىش 3
ئېڭىكىنى 3
ئېگىلدى 3
ئېھ@@ 3
ئېھتى@@ 3
ئەبلەخلەر 3
ئەبلەخنىڭ 3
ئەت 3
ئەتتى 3
ئەتراپ@@ 3
ئەترىتىنى 3
ئەترىتىگە 3
ئەتىرگۈل 3
ئەتىرگۈلنى 3
ئەتىقە 3
ئەتىگەندە 3
ئەجدىھا 3
ئەخلەت@@ 3
ئەخلەتلەرنى 3
ئەدىيالنى 3
ئەدىيالنىڭ 3
ئەسكەرنىڭ 3
ئەسىردىكى 3
ئەسىرنىڭ 3
ئەسۋاب@@ 3
ئەسۋابىنى 3
ئەسەر@@ 3
ئەكس 3
ئەلدىكى 3
ئەللىرىدىكى 3
ئەمەستەك 3
ئەمەلدا@@ 3
ئەمەلدارى 3
ئەنگى@@ 3
ئەپەندى 3
ئەپەندىلەر 3
ئەڭلىك 3
ئەگى@@ 3
ئەگە@@ 3
ئەگەر 3
ئەھ@@ 3
ئەھمىيەت 3
ئەۋرى@@ 3
اتىنىڭ 3
اش 3
اق 3
الماي 3
انىدا 3
بات@@ 3
باتا@@ 3
بارخىنىدىن 3
بارماقچى 3
بارىچە 3
بازار@@ 3
بازىرىغا 3
باسقۇچ@@ 3
باشقى@@ 3
باشلان@@ 3
باشلىقلىرى 3
باغلايدۇ 3
باغلى@@ 3
باغۋەن@@ 3
باقايلى 3
بالا@@ 3
بالدا@@ 3
بالكوندىكى 3
بالكونغا 3
بالو@@ 3
بالىلىرىنى 3
بامبۇ@@ 3
بان@@ 3
بانكىسى 3
بايراقلارنى 3
بايلار 3
بايىلا 3
باھالى@@ 3
باھالىغۇچىلار 3
باۋ@@ 3
برېزېنت 3
بوتۇلكىدىكى 3
بوغقۇچى 3
بوغما 3
بوغۇ@@ 3
بوكس@@ 3
بولاق 3
بولسۇن 3
بولكى@@ 3
بولو 3
بوي@@ 3
بوۋا@@ 3
بوۋىسى 3
بىتىنى 3
بىردەم 3
بىرسىنىڭ 3
بىرى@@ 3
بىرىدە 3
بىزەك 3
بىسىنى 3
بىلەك 3
بىلەپ 3
بىنانى 3
بىي@@ 3
بىگى@@ 3
بىگىز 3
بۆلۈم@@ 3
بۇرغا 3
بۇرمىسىمان 3
بۇرى@@ 3
بۇزۇ@@ 3
بۇزۇلغان 3
بۇس 3
بۇشې@@ 3
بۇغدا@@ 3
بۇلۇڭغا 3
بۇيرىدى 3
بۇيۇملارغا 3
بۇيۇملىرىنىڭ 3
بۇيۇمىغا 3
بۇيۇمىنىڭ 3
بۇژغۇن@@ 3
بۈركۈتى 3
بۈگۈن 3
بېزى@@ 3
بېزەكلىرىنى 3
بېزەۋاتىدۇ 3
بېسى@@ 3
بېسىملىق 3
بېسىمىنى 3
بېشى@@ 3
بېغى@@ 3
بېقىشقا 3
بېقىشنى 3
بېلى@@ 3
بەت 3
بەدىئىي 3
بەدەنگە 3
بەرداشلىق 3
بەرگى@@ 3
بەشىنچى 3
تائاملاردىن 3
تائاملارنى 3
تاتى@@ 3
تاتىلاۋاتىدۇ 3
تاجى@@ 3
تاختايدىن 3
تاختىپەردىن 3
تارتماقچى 3
تارتىدۇ 3
تارتىۋاتقانلىقىنى 3
تارتىۋېلىشقا 3
تارغاق 3
تارقىتىۋاتىدۇ 3
تارى@@ 3
تازىلاشنى 3
تاسمىسىدا 3
تاشلىۋېتىلگەن 3
تاغ@@ 3
تاغار 3
تاغلارنى 3
تاك@@ 3
تاللىغان 3
تالونى 3
تاماشىبىن@@ 3
تاماقخانا 3
تاماققا 3
تامىقىدىن 3
تانكا 3
تاياق@@ 3
تايىقىنى 3
تاپان 3
تاپانچىسى 3
تاپانچىسىنى 3
تاپانچىنى 3
تاپشۇرۇ@@ 3
تاپشۇرۇۋالدى 3
تاپىدۇ 3
تاڭ 3
تاۋاپخانىدا 3
تتە 3
ترانس@@ 3
ترو@@ 3
تكە 3
توخ@@ 3
توختايدۇ 3
توردىن 3
تورنىكتا 3
تورىدا 3
توسقۇچ 3
توسۇش 3
توسۇلۇپ 3
توسۇۋېلىپ 3
توشۇيدىغان 3
توشۇيدۇ 3
توقۇشنى 3
توقۇل@@ 3
توك@@ 3
تولغا@@ 3
تولغاۋاتىدۇ 3
تونۇ@@ 3
تونې@@ 3
تويوتا 3
توپتىن 3
توپلاش 3
توپلاشقان 3
توپىدىن 3
توڭ@@ 3
توڭلات@@ 3
تىترەپ 3
تىراكتور 3
تىرنا@@ 3
تىرنىقىغا 3
تىرىشىۋاتىدۇ 3
تىرىك 3
تىزدى 3
تىزىق 3
تىزىم@@ 3
تىزىملىك 3
تىشنى 3
تىغ 3
تىكىلەر 3
تىلغا 3
تىلى 3
تىلىرىنىڭ 3
تىن@@ 3
تىنچ@@ 3
تىۋاتقانلىقىنى 3
تۆشۈككە 3
تۇتاش@@ 3
تۇتام 3
تۇتقۇچتا 3
تۇتىشىدۇ 3
تۇتۇۋېلىپ 3
تۇرغاندەك 3
تۇرغۇ@@ 3
تۇرغۇچىلارغا 3
تۇرماقتا 3
تۇرماقچى 3
تۇرنا 3
تۇرۇبىغا 3
تۇش 3
تۇلۇق 3
تۇمان@@ 3
تۇڭى 3
تۇڭىنى 3
تۈرۈشنى 3
تۈزلەڭ@@ 3
تۈپتۈز 3
تۈگۈ@@ 3
تۈگۈچ 3
تۈۋرۈك@@ 3
تۈۋرۈكتە 3
تۈۋىگە 3
تېخنى@@ 3
تېخنىكا 3
تېرىش 3
تېرىنىر 3
تېرىيدۇ 3
تېزلا 3
تېكۋاندو 3
تېلېسكو@@ 3
تېلېفوننىڭ 3
تېلېكامېرا@@ 3
تېلېكامېرادا 3
تېلېۋىزورغا 3
تېلېۋىزىيە 3
تېمپېراتۇر@@ 3
تېيىلى@@ 3
تېيىلىشتىن 3
تېپىش 3
تېڭىلغان 3
تېگىپ 3
تەبرى@@ 3
تەبرىكلەۋاتىدۇ 3
تەبى@@ 3
تەبىئەتنىڭ 3
تەجرىبىخانىدىكى 3
تەخسىلەرنى 3
تەر@@ 3
تەردى 3
تەرەپ@@ 3
تەشكىللىدى 3
تەشكىللەپ 3
تەقلىدىي 3
تەكرا@@ 3
تەكشىلىك 3
تەكشۈر@@ 3
تەكشۈرمەكتە 3
تەكشۈرۈ@@ 3
تەكشۈرۈشنى 3
تەكچى@@ 3
تەمىنلىدى 3
تەمىنلىگەن 3
تەمىنلەۋاتىدۇ 3
تەمىنى 3
تەن@@ 3
تەنناز 3
تەييارلىغان 3
تەڭتۇش@@ 3
تەڭلىدى 3
تەڭلىشىپ 3
تەڭپۇڭلۇقىنى 3
تەگكۈز@@ 3
تەۋرىنىۋاتىدۇ 3
تەۋرە@@ 3
جارقىراپ 3
جازىسىدىكى 3
جازىسىنى 3
جامائەت 3
جان@@ 3
جاينى 3
جاۋا@@ 3
جىسىمدىن 3
جىسىملارنى 3
جىكىنى 3
جىلغىدا 3
جىلغىدىن 3
جىلغىسىغا 3
جىم 3
جىنايەت 3
جىنسلىرىنى 3
جىنىسلىقلار 3
جيا 3
جۈپ@@ 3
جېك 3
جەريانىنى 3
جەل@@ 3
جەڭ@@ 3
جەھەتتە 3
خادىدىن 3
خادىنىڭ 3
خانىدىن 3
خانىسىدىكى 3
خانىم-قىزلار 3
خولى@@ 3
خىزمەتداشلىرى 3
خىزمەتدىشى 3
خىزمەتلەرنى 3
خىزمەتچىلەر 3
خۇئافۇ 3
خۇرۇ@@ 3
خېرىدا@@ 3
خېرىدارنىڭ 3
خېلىلا 3
خەرىتىسىنى 3
خەرىتىگە 3
خەلق@@ 3
دار 3
داشقىلى 3
داكا 3
دالدىغا 3
دانلىق 3
داننى 3
داپ@@ 3
داۋالا@@ 3
دراماتىك 3
دوختۇرخانىدىكى 3
دوسكا 3
دوقمۇشىغا 3
دوك@@ 3
دومساي@@ 3
دومىلى@@ 3
دوگۇر 3
دىئا@@ 3
دىئاگرام@@ 3
دىرىژور 3
دىكتورى 3
دىپلوماتىيە 3
دۆلەتتە 3
دۆۋىسىگە 3
دۇخوپكىدا 3
دۇخوپكىدىن 3
دۇربۇننى 3
دۇكاننى 3
دۇمباقنى 3
دۇمباقنىڭ 3
دۇمبىقى 3
دۇنيادىكى 3
دۈرىدىغان 3
دۈرگەن 3
دۈمبىسى 3
دېربى 3
دېرىزىدە 3
دېكورات@@ 3
دېڭىز@@ 3
دېھقانلار 3
دەرىخىدىن 3
دەريانىڭ 3
دەرەخ@@ 3
دەرەخلەرگە 3
دەزمال 3
دەسسى@@ 3
دەسمال 3
دەيدۇ 3
دەپ@@ 3
رادى@@ 3
راز 3
راز@@ 3
رازى 3
راق 3
رالغان 3
رامكىسىدىكى 3
رامكىسىنى 3
ران 3
ران@@ 3
رانە 3
راۋاتاتتى 3
ردىكى 3
رو 3
رولىنىڭ 3
روم@@ 3
روھىي 3
رىسىغا 3
رىسىنىڭ 3
رىشاتكىغا 3
رىقابىتى 3
رېتى@@ 3
رېستورا@@ 3
رېستۇر@@ 3
رېستۇران@@ 3
رېلىسىنىڭ 3
رېمونتچىسى 3
رەزىللىكنى 3
رەسىمدىن 3
رەسىملەرنى 3
رەقەم 3
رەك 3
رەكنى 3
رەندى@@ 3
رەيدۇ 3
رەڭسىز 3
رەڭلەرنى 3
رەۋاتاتتى 3
زالنىڭ 3
زاپچاس@@ 3
زاۋۇ@@ 3
زاۋۇتنىڭ 3
زدى 3
زغا 3
زو@@ 3
زىن@@ 3
زىيارىتىنى 3
زىيارەتكە 3
زىيارەتنى 3
زىيانغا 3
زىياپ@@ 3
زىياپىتىدە 3
زىياپەت 3
زۆرۈر 3
زې@@ 3
زەك 3
زەنجىۋىل 3
سائىتىگە 3
سائەت@@ 3
سائەتلىك 3
ساتىراشخانىنىڭ 3
سادا@@ 3
سارايدا 3
ساراڭ 3
ساراڭلارچە 3
سارغۇچ 3
ساغرىسى 3
ساغرىسىنى 3
ساغلاملىق 3
سافادىن 3
سافانىڭ 3
ساقلاۋاتقاندەك 3
ساقىيقۇش 3
ساقچىنىڭ 3
سالام 3
سالدا 3
سالمون 3
سالنىڭ 3
سالوندا 3
سالىدىغان 3
سامۇرا@@ 3
ساندۇقتا 3
ساننى 3
سايلام 3
سايمانلار 3
سايى@@ 3
ساڭنا 3
ساڭگىلاپ 3
ساھىلدىن 3
ساھىلىنىڭ 3
ساۋۇت 3
سلىق 3
سنىڭ 3
سوئا@@ 3
سودىگىرىنىڭ 3
سورۇ@@ 3
سورۇندىكى 3
سوز@@ 3
سوزۇلۇش 3
سوقۇشىنى 3
سومكىغا 3
سون 3
سوپۇ@@ 3
سوۋغىتى 3
سىتارباكىس 3
سىرتىنى 3
سىرلىغان 3
سىرلىق 3
سىرنى 3
سىزلىك 3
سىزىقتا 3
سىزىقىنى 3
سىزىقچىلار 3
سىلكىۋاتىدۇ 3
سىلىق@@ 3
سىلىقلاش 3
سىمدا 3
سىمىدا 3
سىنا@@ 3
سىنغا 3
سىيا@@ 3
سىيرى@@ 3
سىيىر 3
سىپ 3
سىگان 3
سىگنال 3
سپې@@ 3
سۆرەۋاتقان 3
سۆزلىشىش 3
سۆزلىشىۋاتىدۇ 3
سۆزلىگۈچى 3
سۆزلەپ 3
سۆزىنى 3
سۆيمەكتە 3
سۆڭەك 3
سۇلۇق 3
سۇيۇق@@ 3
سۇيۇقلۇقنىڭ 3
سۇپىسىدىن 3
سۈرتىدۇ 3
سۈرتىۋاتاتتى 3
سۈرتۈش 3
سۈرتۈپ 3
سۈركەپ 3
سۈرلۈك 3
سۈرۈ@@ 3
سۈرەتنىڭ 3
سۈمۈر@@ 3
سۈمۈرگۈ@@ 3
سۈمۈرۈش 3
سۈيىنىڭ 3
سۈپۈردى 3
سۈپۈرگىنى 3
سېئاتىلدىكى 3
سېتكىدىن 3
سېتىلىشنى 3
سېتىپ 3
سېتىۋاتقان 3
سېتىۋالماقچى 3
سېتىۋېلىپ 3
سېستىرا 3
سېستىرالار 3
سېغى@@ 3
سېلىنچىسى 3
سېمونتنى 3
سېھىر@@ 3
سېۋەت@@ 3
سەدەپ 3
سەنئەتكار@@ 3
سەنەت 3
سەيبەيۋېي 3
سەھەردە 3
شارقىرات@@ 3
شارقىراتمىنى 3
شارنىڭ 3
شارىنىڭ 3
شارچىسىنى 3
شارچىنى 3
شاللىۋېتى@@ 3
شامال 3
شامال@@ 3
شتات@@ 3
شتۈرۈش 3
شلۇق 3
شوتىدىكى 3
شوخلۇق 3
شور@@ 3
شورىدى 3
شورپا 3
شولىسى 3
شوپۇر@@ 3
شىدا 3
شىدىكى 3
شىركىتى 3
شىركەتنىڭ 3
شىشىخال 3
شىم 3
شىپا@@ 3
شىۋاتاتتى 3
شۇ@@ 3
شۇرۇپ 3
شۇپ 3
شۇڭا 3
شۇڭغۇپ 3
شۈر@@ 3
شېۋرول@@ 3
شە 3
شەرقتىكى 3
شەكلىنى 3
شەم@@ 3
شەپكىسىنىڭ 3
غانلار 3
غوللۇق 3
غولىنى 3
غىنى@@ 3
غىنىغا 3
غۇچىلارنىڭ 3
غۇچىنى 3
غەر@@ 3
غەرق 3
غەلى@@ 3
غەلىبىنى 3
ف 3
ففې@@ 3
فلانېل 3
فو@@ 3
فور@@ 3
فون@@ 3
فونتا@@ 3
فونتاندىكى 3
فىرانسى@@ 3
فۇنىكۇليوردا 3
قات 3
قاتار@@ 3
قاتلاۋاتىدۇ 3
قاتلى@@ 3
قاتلىمىدا 3
قاتناشقاندا 3
قاتناشنى 3
قادالغان 3
قاراق@@ 3
قاراقچىلىرىنىڭ 3
قاراڭغۇ@@ 3
قاراۋاتقان 3
قارىداپ 3
قارىسا 3
قارىشىنى 3
قارىغاي@@ 3
قازاننى 3
قاقلىق 3
قال 3
قالدۇر@@ 3
قالدۇرۇپ 3
قالقان 3
قالپاققا 3
قالپاقلىق 3
قالپى@@ 3
قاناتلىق 3
قاندىن 3
قانغۇچە 3
قانلىقىنى 3
قاننى 3
قايتىدىن 3
قاپسىلىپ 3
قاپقى@@ 3
قاپچۇقىدىن 3
قاچىنىڭ 3
قتىكى 3
قلاپ 3
قلۇق 3
قوتان 3
قوتاندا 3
قورالنى 3
قورشاۋىدا 3
قورشى@@ 3
قورشىۋالدى 3
قورشىۋېلىنغان 3
قورغان@@ 3
قورقۇنچلۇق 3
قوز@@ 3
قوش@@ 3
قوشكېزەك 3
قوشۇقنى 3
قوشۇن 3
قوغداش 3
قوغدايدۇ 3
قوغداۋاتىدۇ 3
قوغدىدى 3
قولتۇقلىشىپ 3
قومۇچ 3
قوناق@@ 3
قونغۇچىلار 3
قويغۇچىغا 3
قويۇشنى 3
قىتئەسىدىكى 3
قىرغاقتىن 3
قىرغىقىغا 3
قىرقىلغان 3
قىزدىن 3
قىزىققاق 3
قىزىقىپ 3
قىزىقچى 3
قىستۇرما 3
قىسقۇچ 3
قىسمىدىكى 3
قىسى@@ 3
قىسىلىپ 3
قىسىم@@ 3
قىشتىكى 3
قىلدۇر@@ 3
قىلدۇرۋاتىدۇ 3
قىلغۇچ 3
قىلماي 3
قىلىدىغانلىقىنى 3
قىلىشتى 3
قىلىشتىن 3
قىلىن@@ 3
قىلچە 3
قىمار 3
قىمارخانا 3
قىمارخانىدا 3
قىممەت 3
قىنىنىڭ 3
قىي@@ 3
قىيادىن 3
قىپ 3
قىپقىزىل 3
قىڭراق 3
قۇتقۇز@@ 3
قۇتقۇزغۇچى 3
قۇتىسىنى 3
قۇتۇپ 3
قۇدۇق 3
قۇراشتۇرۇۋاتىدۇ 3
قۇرۇلمىدا 3
قۇرۇلمىدىن 3
قۇرۇلمىسىنى 3
قۇسى 3
قۇلۇلىسى 3
قۇلۇلە 3
قۇلۇپ 3
قۇنىڭ 3
قۇياش@@ 3
قۇياشقا 3
قۇياشنىڭ 3
قۇيۇ@@ 3
قۇيۇن 3
قۇچىقىدا 3
قېتىمقى 3
قېلىش@@ 3
قېلىندى 3
قېيىقى 3
قەت@@ 3
قەدىمىنى 3
قەدەم@@ 3
قەغىزىنى 3
قەغىزىگە 3
قەلەم@@ 3
قەپى@@ 3
قەپەستە 3
قەپەسكە 3
قەھرىتان 3
قەھۋەخانىدىن 3
قەھۋەخانىسى 3
قەھۋەخانىسىنىڭ 3
قەۋەت 3
قەۋەتكە 3
كابىن@@ 3
كات@@ 3
كاتىپلىق 3
كار 3
كارتا 3
كارخانى@@ 3
كارلىق 3
كارنى@@ 3
كارىدور 3
كارىۋات@@ 3
كارىۋاتنىڭ 3
كارۋى@@ 3
كاس@@ 3
كاك@@ 3
كاكچىسى 3
كاكچىسىنى 3
كالىسىغا 3
كالىسىنىڭ 3
كالىغا 3
كالىفور@@ 3
كالپۇ@@ 3
كانا@@ 3
كانادا 3
كانىيى 3
كاۋاپدان@@ 3
كاۋاپدانغا 3
كاۋى@@ 3
كرېستنى 3
كس 3
كلاي@@ 3
كلى@@ 3
كلۈك 3
كو 3
كوزا 3
كوكۇ@@ 3
كوم@@ 3
كوماندىسىنى 3
كوماندىغا 3
كومپيۇتېرغا 3
كومپيۇتېرنىڭ 3
كومپيۇتېرىنىڭ 3
كونترول@@ 3
كونى 3
كونۇسى 3
كىتابتىكى 3
كىتابچە 3
كىرمەكچى 3
كىرىسلودا 3
كىرىشنى 3
كىرگۈزۈش 3
كىرگۈزۈشكە 3
كىسىدىكى 3
كىسىدىن 3
كىش@@ 3
كىشىگە 3
كىلا@@ 3
كىلىك 3
كىلەرگە 3
كىيد@@ 3
كىيمىدى 3
كىيىنىشكە 3
كىيىۋاتىدۇ 3
كىچى@@ 3
كۆتۈرگىنىچە 3
كۆردۈم 3
كۆرسىتىدىغان 3
كۆرسەتكۈچ 3
كۆرمەيدۇ 3
كۆرگەچ 3
كۆرۈشنى 3
كۆرۈنمەس 3
كۆرەلمەيدۇ 3
كۆرەلەيسىز 3
كۆزلىرى 3
كۆزنى@@ 3
كۆزنەكتە 3
كۆزى@@ 3
كۆزىتىش 3
كۆزىنىڭ 3
كۆزەينىكىنى 3
كۆزەينەك@@ 3
كۆك@@ 3
كۆكتاتنى 3
كۆكرىكىگىچە 3
كۆكى 3
كۆكۈچ 3
كۆلچىكى 3
كۆلەڭ@@ 3
كۆم@@ 3
كۆمۈ@@ 3
كۆپچى@@ 3
كۆپۈكلۈك 3
كۆڭلەكنىڭ 3
كۆۋرۈككە 3
كۇئاڭۋېي 3
كۇتۇپ@@ 3
كۇلۇبنىڭ 3
كۇلۇبىنىڭ 3
كۈتىۋالدى 3
كۈتۈۋېلىشقا 3
كۈر 3
كۈركۈم 3
كۈلىدىغان 3
كۈلىۋاتقان 3
كۈلۈمسى@@ 3
كۈنجۈ@@ 3
كۈنلۈكى 3
كۈچنى 3
كۈچىنى 3
كۈچۈ@@ 3
كۈچۈكى 3
كۈچەيت@@ 3
كېتىدىغان 3
كېتىشىدىن 3
كېتىشىگە 3
كېرەك@@ 3
كېسىلگەن 3
كېسىۋېتىلگەن 3
كېسەل@@ 3
كېلىدۇ 3
كېلىن@@ 3
كېلىندى 3
كېلەر 3
كېچەك@@ 3
كەتكەن@@ 3
كەتمەس@@ 3
كەشنى 3
كەشنىڭ 3
كەلكۈن 3
كەلمەيدىغان 3
كەمپۈتتىن 3
كەنتتىكى 3
كەپتەر@@ 3
كەپتەرگە 3
كەپشەرلىدى 3
كەپكە 3
كەپىنىڭ 3
كەچ@@ 3
لابرادور 3
لاتارىيە 3
لاردەك 3
لاسۋىگاس 3
لاشنى 3
لاقنى 3
لامپا 3
لامپىسى 3
لامپۇچ@@ 3
لاند 3
لاندى@@ 3
لاندىيە 3
لايدىن 3
لايغا 3
لاڭ@@ 3
لاۋاتقاندا 3
لىد 3
لىرى@@ 3
لىرىدە 3
لىفىتتىن 3
لىقنىڭ 3
لىقىدىكى 3
لىقىدىن 3
لىقىغا 3
لىكتىن 3
لىكلەر 3
لىكىدە 3
لىكىنىڭ 3
لىنىيە@@ 3
لىيە@@ 3
لىڭشىپ 3
لىۋاتقان 3
لگەنلىكىنى 3
لۆڭگىدە 3
لۇش 3
لۇشقا 3
لۇقىدىكى 3
لۇم 3
لېكسىيە 3
لېنتىسى 3
لەشكەن 3
لەشنى 3
لەپىل@@ 3
لەۋھە 3
ماتراس 3
ماتېرىياللىرى 3
ماددا 3
مارا@@ 3
مارجان@@ 3
ماروژنىنى 3
ماسكىسى 3
ماسلاشتۇرۇلغان 3
ماشىنىلاردا 3
ماقنى 3
ماكا@@ 3
ماكدونالد@@ 3
ماكدونالدنىڭ 3
ماللارنى 3
ماللىرىنى 3
مامكا@@ 3
مامۇق 3
مانلىق 3
مانى 3
ماڭغۇچىلار 3
ماھارەتلىك 3
ماھىرلىرىنىڭ 3
ماھىرىنىڭ 3
مغا 3
مو 3
موتسىكلىتىنىڭ 3
موتوسىكلى@@ 3
موزاي 3
موزاي@@ 3
مول 3
مىجەزى 3
مىدىرلىماي 3
مىسىدىن 3
مىسىغا 3
مىكروسكوپقا 3
مىللىيچە 3
مىنسە 3
مىننې@@ 3
مىنگىنىنى 3
مىنگەنلەر 3
مىنۇ@@ 3
مىڭ 3
مۆكۈۋالدى 3
مۇئەللى@@ 3
مۇخ 3
مۇخبىر 3
مۇخبىر@@ 3
مۇداپىئەچى 3
مۇداپىئەچىدىن 3
مۇزغا 3
مۇزلۇق 3
مۇزىكانتلارنىڭ 3
مۇزىكانتلىرى 3
مۇزىكىغا 3
مۇزې@@ 3
مۇزېيدىكى 3
مۇزېينىڭ 3
مۇسابىقىسىدىن 3
مۇستەم@@ 3
مۇشت 3
مۇقاۋى@@ 3
مۇقەددەس 3
مۇكاپاتقا 3
مۇكەممەل 3
مۇلازىمەتچى 3
مۇلازىمەتچىسى 3
مۇنارغا 3
مۇنازى@@ 3
مۇنبەر 3
مۇنچىدىن 3
مۇنچىنىڭ 3
مۇھاكىمە 3
مۇھىم 3
مۇۋەپپەقىيەتلىك 3
مۈرى@@ 3
مۈشۈ@@ 3
مۈشۈكنىڭ 3
مۈڭگۈز@@ 3
مۈڭگۈزى 3
مېتاللارنى 3
مېترودىن 3
مېخانىك 3
مېدال 3
مېدال@@ 3
مېڭى@@ 3
مېھمانخانىدىكى 3
مەت@@ 3
مەخ@@ 3
مەركىزى 3
مەركىزىدىن 3
مەركىزىنى 3
مەركەز@@ 3
مەركەزلەش@@ 3
مەزمۇن@@ 3
مەشئەلنى 3
مەشىقىنى 3
مەغرۇرلانغان 3
مەغلۇپ 3
مەلىكە 3
مەلھەم 3
مەنئى 3
مەنبە@@ 3
مەنزىرىگە 3
مەي 3
مەيدۇ 3
مەڭ@@ 3
مەڭزىنى 3
مەھ@@ 3
مەھسۇلاتىنى 3
نات 3
ناخ@@ 3
ناغ@@ 3
نام@@ 3
ناچار 3
ناھىيە 3
ندىكى 3
ندۈرۈ@@ 3
نورمال 3
نورۇز 3
نومۇرلىرىنى 3
نىدىغان 3
نىسىنى 3
نىشا@@ 3
نىشنى 3
نىقا@@ 3
نىكىنى 3
نىنجا 3
نىڭ@@ 3
نۇرلۇق 3
نۇس@@ 3
نۇقتا 3
نۇقتىدىن 3
نېفى@@ 3
نېمىلەرنى 3
نېنى 3
نە-@@ 3
نەرسىلەردىن 3
نەيچىدىن 3
نەچچىسى 3
نەۋرە 3
ىد@@ 3
ىدا@@ 3
ياتا@@ 3
ياتقانلىقىنى 3
ياتى@@ 3
يار@@ 3
يارا 3
ياراتتى 3
ياراغ@@ 3
ياردىكى 3
ياردەملىشىۋاتىدۇ 3
يارىلان@@ 3
يارىلىنىپ 3
يازدا 3
يازنىڭ 3
يازىدۇ 3
ياس@@ 3
ياساشنى 3
ياستۇقنى 3
ياسىغانلىقىنى 3
ياسىنى@@ 3
ياشتىن 3
ياشلارنىڭ 3
يالاپ 3
يام@@ 3
ياما@@ 3
ياماخا 3
ياماش@@ 3
ياماشقاندا 3
يامىشىدۇ 3
يانغاندا 3
يايمىدا 3
يايمىنىڭ 3
ياپقۇچ@@ 3
ياپو@@ 3
ياپىلاق 3
ياۋ@@ 3
ياۋرو 3
يلار 3
يورۇتتى 3
يورۇتۇ@@ 3
يورۇتۇپ 3
يوشۇرۇ@@ 3
يوشۇرۇنۇ@@ 3
يوقى@@ 3
يول@@ 3
يولۇچىنى 3
يوپيورۇق 3
يوپۇرماقلىق 3
يىتى 3
يىدىن 3
يىرتىۋەتتى 3
يىسىدە 3
يىغىلغاندا 3
يىغىلىشىغا 3
يىغىنغا 3
يىغىنى 3
يىغىنىغا 3
يىقى@@ 3
يىلاننى 3
يىڭنىسى 3
يىڭنىگە 3
يىۋاتىدۇ 3
يۆتكىل@@ 3
يۆتكەلدى 3
يۆنىلى@@ 3
يۆگىمە 3
يۇكلى 3
يۇلتۇ@@ 3
يۇلتۇزىنى 3
يۇيۇ@@ 3
يۇيۇشقا 3
يۇيۇندى 3
يۇيۇنۇ@@ 3
يۇيۇنۇۋاتىدۇ 3
يۈرمەكتە 3
يۈرگەندە 3
يۈرۈش@@ 3
يۈزلەنگەن 3
يۈسۈنى 3
يۈگۈرتۈپ 3
يۈگۈرۈ@@ 3
يېتىۋالدى 3
يېتەكلىدى 3
يېرى 3
يېرىمى 3
يېزىقى 3
يېشىۋاتىدۇ 3
يېغىۋاتقان 3
يېقىنلىشىۋاتىدۇ 3
يېيىلغان 3
يېپىلغان 3
يېڭىنى 3
يېگۈزدى 3
يەتكەن@@ 3
يەتكەنلەرنىڭ 3
يەدىكى 3
يەل@@ 3
يەلپۈ@@ 3
يەلپۈگۈچنى 3
يەم 3
يەي@@ 3
يەھۇدى@@ 3
پائالىيىتىنى 3
پائالىيەتلەرنى 3
پاخى@@ 3
پارات@@ 3
پاراشوتنى 3
پاراشوك 3
پاراڭلىشىۋاتقاندەك 3
پاراڭلىشىۋاتقانلىقىنى 3
پاراۋوز 3
پارتىنىڭ 3
پارقى@@ 3
پارچىسىنى 3
پارچىلىرىنى 3
پاسخا 3
پاقال@@ 3
پال 3
پالوبىسىدا 3
پالۇ@@ 3
پالۇبىسىدا 3
پالۋاننىڭ 3
پاناھ@@ 3
پانۇ@@ 3
پانۇسى 3
پاپوروتنىك@@ 3
پتا 3
پرو@@ 3
پروبىر@@ 3
پرويېك@@ 3
پرويېكسىيە 3
پروگرام@@ 3
پروگرامما 3
پرىتسېپنىڭ 3
پورەكلەپ 3
پوس@@ 3
پوكىيىنىڭ 3
پوكەي@@ 3
پول@@ 3
پولاتتىن 3
پونكى@@ 3
پونكىتىدىكى 3
پويى@@ 3
پويىزدىن 3
پويىزىنى 3
پوپاي@@ 3
پوپايكىسىنى 3
پوچ@@ 3
پىئانىنونىڭ 3
پىرقىراۋاتىدۇ 3
پىرقىرىغۇچ 3
پىركازچىك 3
پىرىستا@@ 3
پىرىستانغا 3
پىرىستاننى 3
پىرىستانىدا 3
پىرە@@ 3
پىسى 3
پىشۇرۇشقا 3
پىغا 3
پىلا@@ 3
پىلاستىنكىسىنىڭ 3
پىنگۋىن 3
پىيادى@@ 3
پىچىقى 3
پىگە 3
پۆپۈ@@ 3
پۆپۈكلۈك 3
پۇتلىشىپ 3
پۇرى@@ 3
پۇقراچە 3
پۇلاڭلات@@ 3
پۇلاڭلىتىۋاتاتتى 3
پۈ@@ 3
پۈتكەن 3
پۈركۈلدى 3
پۈركۈپ 3
پۈۋلىمەكتە 3
پېر@@ 3
پېلەك 3
پەرەس 3
پەسلىدىكى 3
پەلى@@ 3
پەلەمپى@@ 3
پەلەمپىيى 3
پەلەمپىيىدىكى 3
پەلەمپىيىدىن 3
پەلەمپىيىگە 3
پەنجى@@ 3
پەنەركە 3
پەيت 3
چاتقاللىقنىڭ 3
چاستو@@ 3
چاستوتا 3
چاش@@ 3
چاغ@@ 3
چاقچاقلاشتى 3
چالغىنىنى 3
چان 3
چانىدىكى 3
چانىنى 3
چايكىسى 3
چايكىغا 3
چاينا@@ 3
چاپاننى 3
چاپلاش 3
چاپلاپ 3
چاپلاۋاتىدۇ 3
چاچرىغان 3
چاچقۇچ 3
چاچلىرىغا 3
چنى 3
چوتكىلاپ 3
چوتكىنى 3
چوشقىنى 3
چوققىسى 3
چوڭقۇرلۇقتىكى 3
چىدىكى 3
چىرقى@@ 3
چىرقىرى@@ 3
چىسىغا 3
چىشلى@@ 3
چىشلىق 3
چىققانلىقىنى 3
چىقماقتا 3
چىقىرىدۇ 3
چىقىرىشقا 3
چىقىرىۋەتتى 3
چىقىشىغا 3
چىقىغا 3
چىقىلدى 3
چىل@@ 3
چىلارغا 3
چىلارنى 3
چىلاپ 3
چىلىرىنىڭ 3
چىلىققا 3
چىلىكنى 3
چىلەرنىڭ 3
چىمىل@@ 3
چىگىۋاتىدۇ 3
چىۋى@@ 3
چىۋە 3
چۇ@@ 3
چۇس 3
چۇۋۇ@@ 3
چۈشكەن@@ 3
چۈشۈرۈۋاتىدۇ 3
چۈشۈشىنى 3
چېدى@@ 3
چېركا@@ 3
چېقى@@ 3
چېقىۋېتىلگەن 3
چېلاشتى 3
چېلىشقا 3
چېلىشىۋاتاتتى 3
چېلىقىپ 3
چېلىكى 3
چېلىۋاتقاندەك 3
چېلىۋاتقانلىقىنى 3
چېنى@@ 3
چەبدەس 3
چەكمە 3
چەمبىرىكىگە 3
چەۋەندازلار 3
چەۋەندازنىڭ 3
ژ@@ 3
ژۇرنىلىنى 3
ڭلار 3
ڭىدىن 3
ڭگى@@ 3
گ 3
گار 3
گازار@@ 3
گالى@@ 3
گرا@@ 3
گول@@ 3
گى 3
گىتارنىڭ 3
گىتارىنى 3
گىتتار@@ 3
گىرۋى@@ 3
گىرۋىكىگە 3
گىگانت 3
گۇرۇپ@@ 3
گۇرۇپپىسىنىڭ 3
گۇمان@@ 3
گۇن@@ 3
گۈزەللىك 3
گۈلخان@@ 3
گۈللۈ@@ 3
گۈللۈكتىكى 3
گۈلگە 3
گۈلۈك 3
گۈچنى 3
گۈچىنىڭ 3
گېئومېتىرىيىلىك 3
گېزەك 3
گېلى@@ 3
گە@@ 3
گەر 3
ھا 3
ھار@@ 3
ھارى@@ 3
ھارۋى@@ 3
ھالقى@@ 3
ھالقىپ 3
ھالەتتە 3
ھام 3
ھامىلدارلىقتىن 3
ھاياتىي 3
ھايۋانغا 3
ھايۋانلارغا 3
ھاڭ 3
ھاۋادىن 3
ھويلىدىن 3
ھويلىسىدىكى 3
ھويلىغا 3
ھىندىستاندىكى 3
ھىندىستاننىڭ 3
ھىي@@ 3
ھىپپى 3
ھۆججەتنى 3
ھۆرمەت 3
ھۆكۈمەت 3
ھۇزۇرلى@@ 3
ھۇزۇرلىنى@@ 3
ھۇزۇرلىنىش 3
ھۈنىرىنى 3
ھۈنەرۋەنچىلىك 3
ھې@@ 3
ھېرىپ 3
ھېچ 3
ھېچقانداق 3
ھەرخىل 3
ھەرىدە@@ 3
ھەرىدەپ 3
ھەرىكەتلەرنى 3
ھەرپ 3
ھەزىل@@ 3
ھەسەن-ھۈسەن 3
ھەممىمىز 3
ھەيدىگەندە 3
ھەيكىلىگە 3
ۇرۇ@@ 3
ۇرۇش 3
ۈر@@ 3
ۈرگۈ@@ 3
ۈرۈش 3
ۈرۈۋاتاتتى 3
ۈشۈپ 3
ۈۋاتىدۇ 3
ۋات@@ 3
ۋاراتاغا 3
ۋاراقلاپ 3
ۋارىقى 3
ۋاقى@@ 3
ۋاكالىتەن 3
ۋاكۇئۇ@@ 3
ۋالغانلىقىنى 3
ۋالىبولنىڭ 3
ۋاننا 3
ۋاننى@@ 3
ۋاننىدىكى 3
ۋاگو@@ 3
ۋاگونى 3
ۋورمادا 3
ۋىتى 3
ۋىك 3
ۋىلكا 3
ۋىنىڭ 3
ۋېتىش 3
ۋېر 3
ۋېلسىپىتنى 3
ۋېلى@@ 3
ۋېلىسپىت 3
ۋېلىش 3
ۋەتكەن 3
ۋەتكەن@@ 3
ۋەتمەكچى 3
ۋەتەنپەرۋەرلىك 3
ۋەر 3
ۋەزىپىنى 3
ۋەقەنى 3
ې 3
ەتتە 3
ەن@@ 3
-ئارا 2
-ئانىلار 2
-سىڭىل@@ 2
-يىللىق 2
-چۆكۈ@@ 2
.a 2
0 2
100 2
13 2
14 2
18 2
19 2
1@@ 2
2008 2
24 2
38 2
63 2
7 2
80 2
95 2
cy@@ 2
doo 2
el 2
enrolling 2
ex@@ 2
gap 2
h 2
i-@@ 2
james 2
jenga 2
k 2
ka 2
kitty 2
lebron 2
mn 2
nerf 2
o 2
polo 2
sal@@ 2
scuba 2
stones 2
tim 2
u 2
ufc 2
v 2
wi@@ 2
y 2
zune 2
ئائى@@ 2
ئاتى@@ 2
ئاجا@@ 2
ئاخى@@ 2
ئاخىرلاش@@ 2
ئادا 2
ئادەتتىكى@@ 2
ئارال@@ 2
ئارام@@ 2
ئارتقان 2
ئارتىس@@ 2
ئارزۇ 2
ئارغام@@ 2
ئارقان 2
ئارقىس@@ 2
ئارقىغا 2
ئارمى@@ 2
ئارىسالدى 2
ئارىلىشىپ 2
ئارىلىقتا 2
ئارىلىقىدا 2
ئازا@@ 2
ئازاب@@ 2
ئاستىن@@ 2
ئاسقۇچ@@ 2
ئاسلاننى 2
ئاسمىنىدا 2
ئاسىيا@@ 2
ئاسىيانى 2
ئاسىيانىڭ 2
ئاشخانى@@ 2
ئاشكارى@@ 2
ئاشپىزى 2
ئاشپە@@ 2
ئاكتىپ 2
ئاكىسى 2
ئاكىسىغا 2
ئالاھىدى@@ 2
ئالغانلىقىنى 2
ئالغىلى 2
ئالغۇ 2
ئالماي 2
ئالمىدى 2
ئاليۇمى@@ 2
ئالۋاس@@ 2
ئامبار 2
ئامما 2
ئامى@@ 2
ئان 2
ئاياللارغا 2
ئاپتوموبىل@@ 2
ئاپتومۇبىل@@ 2
ئاپشار@@ 2
ئاچا@@ 2
ئاھالى@@ 2
ئاۋ 2
ئسلام 2
ئو 2
ئوب@@ 2
ئوتتۇرى@@ 2
ئوخشى@@ 2
ئورال@@ 2
ئوران@@ 2
ئورما 2
ئورنى@@ 2
ئورىدى 2
ئورگان@@ 2
ئورۇندۇقىنى 2
ئورۇنلاش@@ 2
ئورۇنلاشتۇردى 2
ئورۇنلاۋاتقانلىقىنى 2
ئوزۇ@@ 2
ئوق@@ 2
ئوكۇ@@ 2
ئولاشتى 2
ئولتۇراق 2
ئولتۇرماقتا 2
ئويغان@@ 2
ئويغى@@ 2
ئويلىدى 2
ئويماقتا 2
ئويىنى 2
ئوپمۇ 2
ئوۋ@@ 2
ئىئانە 2
ئىبا@@ 2
ئىتالى@@ 2
ئىتتى@@ 2
ئىتتىن 2
ئىدا@@ 2
ئىرقى@@ 2
ئىرې@@ 2
ئىزىنى 2
ئىستا@@ 2
ئىستاكان@@ 2
ئىستول@@ 2
ئىسىم 2
ئىشخانى@@ 2
ئىشخانىسىدىكى 2
ئىشلەي@@ 2
ئىشلەپ 2
ئىشچىسىغا 2
ئىشەن@@ 2
ئىق@@ 2
ئىك@@ 2
ئىلا@@ 2
ئىلىنىپ 2
ئىمتى@@ 2
ئىن 2
ئىنا@@ 2
ئىنكا@@ 2
ئىنى@@ 2
ئىنەك 2
ئىچقويۇن 2
ئىچىملىك@@ 2
ئۆت@@ 2
ئۆتكۈ@@ 2
ئۆتە@@ 2
ئۆردە@@ 2
ئۆس@@ 2
ئۆست@@ 2
ئۆك@@ 2
ئۆلۈ@@ 2
ئۆيىدىن 2
ئۆيىنى 2
ئۆڭ@@ 2
ئۇتتۇرۇپ 2
ئۇرۇشۇ@@ 2
ئۇرۇقى 2
ئۇرۇن@@ 2
ئۇرۇنۇ@@ 2
ئۇس 2
ئۇس@@ 2
ئۇستا@@ 2
ئۇستى 2
ئۇستى@@ 2
ئۇسسۇ@@ 2
ئۇسسۇلىنى 2
ئۇنى@@ 2
ئۇنۋېر@@ 2
ئۇچقۇ@@ 2
ئۇچىنى 2
ئۈ@@ 2
ئۈزمەي 2
ئۈسكۈ@@ 2
ئۈلگ@@ 2
ئۈچتىن 2
ئېتوت 2
ئېتىبار 2
ئېتىراپ 2
ئېتىزىنى 2
ئېتىشىغا 2
ئېتىشىپ 2
ئېتىۋالغان 2
ئېتىۋېلىپ 2
ئېسىدە 2
ئېقىش 2
ئېكىس@@ 2
ئېل@@ 2
ئېلان@@ 2
ئېللى@@ 2
ئېلىش@@ 2
ئېلىشىغا 2
ئېلىندى 2
ئېلىۋېتىپ 2
ئېلىۋەتتى 2
ئېلېك@@ 2
ئېمى@@ 2
ئېگەر@@ 2
ئەبلەخ@@ 2
ئەتراپىنىڭ 2
ئەخ@@ 2
ئەدە@@ 2
ئەرسىنىڭ 2
ئەرلەردىن 2
ئەسلى@@ 2
ئەسى@@ 2
ئەسىر 2
ئەسە@@ 2
ئەشيا@@ 2
ئەقلىي 2
ئەقىل@@ 2
ئەللى@@ 2
ئەنگ@@ 2
ئەپەن@@ 2
ئەھۋال@@ 2
اتا@@ 2
اتلىق 2
اتى 2
اتىغا 2
اتىنى 2
ار@@ 2
الغان 2
اللاۋاتىدۇ 2
ان@@ 2
ايدى@@ 2
بابى 2
باد@@ 2
بارخى@@ 2
بارماق@@ 2
بازغان@@ 2
بازى@@ 2
باستې@@ 2
باشقۇرۇش 2
باشلاشنى 2
باشلىق 2
باغدا 2
باغرىدىكى 2
باغرىنى 2
باغلاش 2
باغلىدى 2
باغچ@@ 2
باغچى@@ 2
باكىنى 2
بال@@ 2
بالكون@@ 2
بالىت 2
بانكىسىنىڭ 2
باي 2
باھال@@ 2
ببا@@ 2
بوشى@@ 2
بوغ@@ 2
بولكىغا 2
بولكىچى 2
بولماقتا 2
بولمايدۇ 2
بوم@@ 2
بونگو 2
بوۋاي@@ 2
بىخە@@ 2
بىدىكى 2
بىراۋ@@ 2
بىرلەش@@ 2
بىغا 2
بىكار 2
بىل@@ 2
بىلمەيدۇ 2
بىلى@@ 2
بىن@@ 2
بىچا@@ 2
بىگ 2
بىۋاس@@ 2
بۇتخانا 2
بۇددا 2
بۇرا@@ 2
بۇغى@@ 2
بۇلۇت@@ 2
بۇنىغا 2
بۈركۈ@@ 2
بېزىدى 2
بېزەك@@ 2
بېغى 2
بېغىر 2
بېقى@@ 2
بېكى@@ 2
بېكەت@@ 2
بېلىق@@ 2
بېي@@ 2
بە 2
بەخ@@ 2
بەس@@ 2
بەيگى@@ 2
بەيۋېي 2
بەھرى@@ 2
ت-@@ 2
تائام@@ 2
تاختاي@@ 2
تاختىپەر@@ 2
تارماق@@ 2
تارىنى 2
تازلىق 2
تازىلى@@ 2
تاشقى@@ 2
تاق@@ 2
تاقا@@ 2
تاقىنى 2
تامى@@ 2
تايا@@ 2
تاۋاپ 2
ترې@@ 2
ترېنې@@ 2
تكا 2
تلىك 2
تو 2
توخۇ@@ 2
تورىغا 2
توز 2
توزنىڭ 2
توزۇپ 2
توق@@ 2
تولغى@@ 2
تومپى@@ 2
تونىل@@ 2
تويلۇق 2
توپى@@ 2
توپچىدىن 2
توپچىلارنىڭ 2
توۋلاپ 2
تىدى 2
تىر 2
تىشقا 2
تىغ@@ 2
تىكلى@@ 2
تىلا@@ 2
تىلدى 2
تىلىق 2
تىم@@ 2
تىياتى@@ 2
تىيىن 2
تىپ@@ 2
تىڭ@@ 2
تىۋەتتى 2
تۆتتىن 2
تۆتى 2
تۆۋى@@ 2
تۇ 2
تۇرال@@ 2
تۇرخۇن 2
تۇردۇ 2
تۇزدا 2
تۇس 2
تۇمشۇ@@ 2
تۇمىنى 2
تۇنجى 2
تۇپ 2
تۇڭىدىن 2
تۈرمە 2
تۈرۈش 2
تۈش 2
تۈكىنى 2
تۈكۈردى 2
تېتى 2
تېتى@@ 2
تېخى@@ 2
تېشى 2
تېشىش 2
تېل 2
تېلېفو@@ 2
تېلېفون@@ 2
تېلېگرا@@ 2
تېمىسىدىكى 2
تېيىلدى 2
تېيىلىشىغا 2
تېگى 2
تېگى@@ 2
تەرى@@ 2
تەسى@@ 2
تەسۋىر@@ 2
تەشۋى@@ 2
تەقى 2
تەمى@@ 2
تەنلىك@@ 2
تەنھەرىكەت@@ 2
تەنھەرىكەتچىنى 2
تەيجى 2
تەييار 2
تەييارلاش 2
تەييارلانغان 2
تەييارلىقىنى 2
تەييى 2
تەڭشە@@ 2
تەۋە@@ 2
ج 2
جابدۇق@@ 2
جازىنى 2
جامېس 2
جاھاز@@ 2
جىدى 2
جىسما@@ 2
جىكى 2
جىلغا 2
جىلىت@@ 2
جىن-@@ 2
جىنى 2
جىنىس@@ 2
جىيەك@@ 2
جىڭ 2
جۈمى@@ 2
جەر@@ 2
جەك 2
خاتا 2
خاتى@@ 2
خادىم@@ 2
خارلې@@ 2
خاسى@@ 2
خال@@ 2
خالى@@ 2
خانىسىدىن 2
خانىمنى 2
خانىنى 2
خاڭگا 2
خرىستى@@ 2
خرۇ@@ 2
خسەت 2
خوجا@@ 2
خىدىكى 2
خىرەلە@@ 2
خىزمى@@ 2
خىشنىڭ 2
خىيال@@ 2
خيۇ@@ 2
خۇرا@@ 2
خەت@@ 2
دات@@ 2
دادى@@ 2
دارىنى 2
داستا 2
داشلىرى 2
دال 2
دام@@ 2
دان@@ 2
داۋان@@ 2
ددى@@ 2
دكا 2
دورى@@ 2
دورىسى 2
دولو@@ 2
دومى@@ 2
دوۋ 2
دىئو 2
دىتىپ 2
دىدىن 2
دىسىنى 2
دىغا 2
دىغانلىقىنى 2
دىق 2
دىلىك 2
دىڭلاش@@ 2
دۆ@@ 2
دۇئېلغا 2
دۇب 2
دۇبىن 2
دۇخو@@ 2
دۇر 2
دۇربۇن@@ 2
دۇرۇ@@ 2
دۇرۇلغان 2
دۇشاپ@@ 2
دۇكى@@ 2
دۇمبى@@ 2
دۇۋا 2
دۋى@@ 2
دې 2
دېل@@ 2
دېڭى@@ 2
دەت 2
دەرس@@ 2
دەرىج@@ 2
دەرىجى@@ 2
دەرىخى@@ 2
دەريا@@ 2
دەزم@@ 2
دەستى@@ 2
رائىلىيە@@ 2
رابى 2
رات 2
رازنى 2
راش 2
راكې@@ 2
رال@@ 2
رالار 2
رايدىغان 2
رايدۇ 2
رايون@@ 2
راۋى@@ 2
ردى 2
رس 2
روجى@@ 2
روسىيە 2
رويخ@@ 2
روھى@@ 2
رىبان 2
رىتى 2
رىزو@@ 2
رىسىنى 2
رىغۇچى 2
رىقا@@ 2
رىك 2
رىك@@ 2
رىلىشىۋاتاتتى 2
رىن 2
رىنېت 2
رىياس@@ 2
رگى@@ 2
رېت 2
رېلى@@ 2
رېن 2
رېژى@@ 2
رەزى@@ 2
رەس@@ 2
رەقىبى@@ 2
رەكلىك 2
رەپ 2
رەڭنى 2
رەگەت@@ 2
رەھ@@ 2
زاتلار 2
زارلىق 2
زاكا@@ 2
زدىكى 2
زدىن 2
زلارنى 2
زلىقلار 2
زمى@@ 2
زىتىش 2
زىرا@@ 2
زىسىنى 2
زىيا@@ 2
زىيان@@ 2
زىياپى@@ 2
زىيى@@ 2
زۇپ 2
زېرى@@ 2
زە 2
زەتلىك 2
زەك@@ 2
زەمبى@@ 2
سائىتىنىڭ 2
سادىق 2
سارا@@ 2
سارى@@ 2
ساغ@@ 2
سافا@@ 2
ساقلاندى 2
ساقچىسى 2
ساقچىغا 2
ساكى 2
سالاھى@@ 2
سالغان 2
سامسۇڭ 2
سانا@@ 2
ساندۋى@@ 2
ساي@@ 2
ساپا@@ 2
ساڭگى@@ 2
ساھى@@ 2
ساھە@@ 2
ساۋاق 2
ساۋاق@@ 2
ستال 2
ستان 2
ستول@@ 2
ستىك 2
ستىكى 2
ستىكى@@ 2
ستۇ@@ 2
ستېر@@ 2
سسو@@ 2
سسىك 2
سكا 2
سلىقى 2
سلەر 2
سوئالغا 2
سوتا 2
سوراشتى 2
سوراق 2
سوقما 2
سونا@@ 2
سويۇ@@ 2
سوڭرىن 2
سوۋغات@@ 2
سىرتىدىن 2
سىرى 2
سىرچى 2
سىقىش 2
سىلاش 2
سىلكى@@ 2
سىلىپ 2
سىمفو@@ 2
سىملىرىنى 2
سىمىنىڭ 2
سىناۋاتىدۇ 2
سىننى 2
سىنىپ 2
سىي 2
سىيرىلغۇچ@@ 2
سىپەي@@ 2
سىڭىل@@ 2
سىگې@@ 2
سۆ@@ 2
سۆرەيدۇ 2
سۆڭى@@ 2
سۆھ@@ 2
سۇشى 2
سۇغا@@ 2
سۇغى@@ 2
سۇل@@ 2
سۇن 2
سۇنۇۋاتىدۇ 2
سۇيۇقلۇ@@ 2
سۇپ@@ 2
سۇڭ 2
سۈركى@@ 2
سۈرەت@@ 2
سۈرەتتىن 2
سۈرەتخانىدىن 2
سۈرەتلىرى 2
سۈرەتلەرنى 2
سۈزۈش 2
سۈم@@ 2
سۈپ@@ 2
سېئاتى@@ 2
سېتىلى@@ 2
سېتىۋېلى@@ 2
سېخىدا 2
سېزىمچان 2
سېكۇن@@ 2
سەز@@ 2
سەككىزى@@ 2
سەي@@ 2
سەپداش@@ 2
سەپىرى@@ 2
سەگەن@@ 2
سەھ@@ 2
سەھرالىق 2
سەھنى@@ 2
سەھەر 2
سەۋ@@ 2
شات@@ 2
شاتتى 2
شاد 2
شارىدا 2
شازا 2
شاگىر@@ 2
شاۋقۇن 2
شتىكى 2
شتۇرۇش 2
شتۈرمە 2
شكىچە 2
شمىسىنىڭ 2
شمە 2
شمەك 2
شىدىغان 2
شىرنىڭ 2
شىرى 2
شىلان@@ 2
شىمال 2
شىمى 2
شىنىڭ 2
شىۋاتىدۇ 2
شىۋالدى 2
شىۋىر@@ 2
شيار@@ 2
شۆ@@ 2
شۇر@@ 2
شۇندا@@ 2
شۋې@@ 2
شېخى@@ 2
شە@@ 2
شەن 2
شەپكىلەرنى 2
شەپە@@ 2
غاجى@@ 2
غاز 2
غاقچىلىق 2
غال 2
غاندىكى 2
غانغا 2
غانلىقىدىن 2
غانلىقىغا 2
غانىدى 2
غاينى 2
غاچقا 2
غاڭزا 2
غرا@@ 2
غى 2
غىدا 2
غىلاپ 2
غىنلىق 2
غۇن@@ 2
غۇچىسىنى 2
غۇچىلىرىغا 2
غە@@ 2
غەتكە 2
غەزە@@ 2
ـ 2
فونتان@@ 2
فىن 2
فۇنىكۇليو@@ 2
قائىدى@@ 2
قاتچى 2
قارام 2
قارشى@@ 2
قارلارنى 2
قارلىقتىكى 2
قارماقنى 2
قازان@@ 2
قاش 2
قاش@@ 2
قاق 2
قاقنى 2
قالىدۇ 2
قالپا@@ 2
قاندەك 2
قانچىلىك 2
قايرى@@ 2
قاپىقى 2
قاپچۇ@@ 2
قتى 2
قلا 2
قلارنىڭ 2
قلاش 2
قلىرى 2
قوشنى@@ 2
قولدىن 2
قوللى@@ 2
قوللىرىغا 2
قوللىرىنى 2
قولىنىڭ 2
قولۋاق@@ 2
قومۇر@@ 2
قونا@@ 2
قويدىن 2
قويغۇچىنى 2
قوينىڭ 2
قويۇن 2
قويۇۋەتكەن 2
قوپ@@ 2
قوۋزى@@ 2
قوۋۇرغا 2
قىتئە@@ 2
قىدىغان 2
قىرى@@ 2
قىرىپ 2
قىزلارنى 2
قىزىتىش 2
قىزىم 2
قىزچاقنى 2
قىزچاقنىڭ 2
قىستا@@ 2
قىلا@@ 2
قىلسا 2
قىلمىدى 2
قىلمىغاندەك 2
قىلىشى@@ 2
قىلىشىغا 2
قىلىشىپ 2
قىلىمەن 2
قىلىنىدىغان 2
قىلىنىۋاتقان 2
قىلىنىۋاتىدۇ 2
قىلىڭ 2
قىمار@@ 2
قىن 2
قىنىدا 2
قىنىنى 2
قىياپى@@ 2
قىيى@@ 2
قچى 2
قچىلار 2
قچىلىق 2
قچە 2
قۇببى@@ 2
قۇتقۇزۇ@@ 2
قۇتى@@ 2
قۇتۇ@@ 2
قۇرۇلۇ@@ 2
قۇرۇلۇشىنى 2
قۇشنىڭ 2
قۇملۇ@@ 2
قۇن@@ 2
قۇپ 2
قۇچاق@@ 2
قۇۋ@@ 2
قېزىۋاتىدۇ 2
قېقىۋەتتى 2
قېلى@@ 2
قەب@@ 2
قەبىل@@ 2
قەبىلى@@ 2
قەدى@@ 2
قەست@@ 2
قەل@@ 2
قەلەمنى 2
قەي@@ 2
قەپە@@ 2
قەپەس@@ 2
ك-@@ 2
كادىللا@@ 2
كارو@@ 2
كاشتان 2
كالتا 2
كالنى 2
كامې@@ 2
كامېرا@@ 2
كانىدا 2
كاپىتان 2
كاچى 2
كاھى@@ 2
كاۋاك 2
كاۋكا@@ 2
كتىكى 2
كرى@@ 2
كسو@@ 2
كلاند 2
كلىكىنى 2
كورىيەلىك 2
كوزىدا 2
كوزىغا 2
كوكا 2
كوكى 2
كولا@@ 2
كولبا@@ 2
كولىغان 2
كومپيۇتې@@ 2
كومپيۇتېرى@@ 2
كوچىسىدىن 2
كوچىلار 2
كوچىلىرىغا 2
كىرئالغۇ@@ 2
كىس@@ 2
كىشى@@ 2
كىشىدىن 2
كىشىلەردىن 2
كىلەرنى 2
كىمون@@ 2
كىن 2
كىنىگە 2
كىيەنىڭ 2
كىپ 2
كىچە 2
كچىلىك 2
كۆتۈرۈل@@ 2
كۆردۇق 2
كۆرسە 2
كۆرگۈ@@ 2
كۆرگۈچى@@ 2
كۆرۈنۈشنىڭ 2
كۆرۈنۈشىدىن 2
كۆرۈنەرلىك 2
كۆز@@ 2
كۆزنى 2
كۆزنەك 2
كۆلنى 2
كۆمۈر@@ 2
كۆڭ@@ 2
كۆڭلىكىدە 2
كۆڭلە@@ 2
كۇرسىيە 2
كۇلۇب@@ 2
كۇلۇبى@@ 2
كۇنۇپ@@ 2
كۈجە 2
كۈرەشچى 2
كۈرەك 2
كۈزدى 2
كۈلۈ@@ 2
كۈلۈۋاتىدۇ 2
كۈنلۈك@@ 2
كۈچ@@ 2
كۈچىلەر 2
كېتىش 2
كېتىشكە 2
كېتىشىنى 2
كېتىۋاتقاندەك 2
كېچىنى 2
كېڭ@@ 2
كەتكەندە 2
كەسىپ@@ 2
كەم@@ 2
كەيپىيات@@ 2
كەھرى@@ 2
لات 2
لاتى@@ 2
لاخشى@@ 2
لاشتۇرۇپ 2
لاشماس 2
لاق 2
لانغاندەك 2
لانغانىدى 2
لانماقتا 2
لانمىغان 2
لايى@@ 2
لاپاس 2
لاڭ 2
لاۋا 2
لاۋۇ@@ 2
لداپ 2
لغىنى 2
لكا 2
لكىسى 2
للى@@ 2
للىك 2
لماقچى 2
لمىغان 2
لمەي 2
لو 2
لوندو@@ 2
لىتىش 2
لىتىۋەتتى 2
لىدا 2
لىدى@@ 2
لىدە 2
لىرىد@@ 2
لىش 2
لىشىغا 2
لىشىنى 2
لىشىۋاتاتتى 2
لىغاندا 2
لىقتىكى 2
لىقى@@ 2
لىقىدا 2
لىكە 2
لىمى 2
لىن 2
لىي 2
لۆ@@ 2
لۇس 2
لۇقتا 2
لۇۋاتىدۇ 2
لۋا@@ 2
لېبلان 2
لېر 2
لېك@@ 2
لەتنى 2
لەتنىڭ 2
لەرمۇ 2
لەرچە 2
لەمپ@@ 2
لەننى 2
لەي 2
لەڭ@@ 2
لەھە@@ 2
ماترا@@ 2
ماتى@@ 2
ماد@@ 2
ماددىي 2
ماراش 2
مارىدى 2
ماس@@ 2
ماشىنى@@ 2
ماشىنىلاردىن 2
ماقال@@ 2
مانلار 2
ماياتنىك 2
ماياك 2
مايدىغان 2
مايكول 2
مايكىنى 2
مايلاۋاتىدۇ 2
مايلى@@ 2
مايمۇ@@ 2
مايمۇن@@ 2
مايىل 2
ماڭغۇچى 2
ماڭگو 2
ماگنى@@ 2
ماگى@@ 2
مبى@@ 2
مدىن 2
مسىز 2
ملۇق 2
ممېر 2
مودېلى@@ 2
موزدۇز 2
مويلۇق 2
موڭغۇ@@ 2
موگۇ 2
مىتى 2
مىتىنى 2
مىدىكى 2
مىسىر@@ 2
مىغ 2
مىفەن 2
مىكىر 2
مىلارنى 2
مىلىرى 2
مىلىرىنى 2
مىن 2
مىنمەكچى 2
مىنىۋاتقان 2
مىنۋاتاتتى 2
مىي 2
مىچىگان 2
مىڭ@@ 2
مپى@@ 2
مچان 2
مچىك 2
مۆتىۋەر@@ 2
مۇئاۋى@@ 2
مۇزىكان@@ 2
مۇزىكىسىغا 2
مۇزېي@@ 2
مۇسابىقىلى@@ 2
مۇسۇل@@ 2
مۇلازى@@ 2
مۇھاپىزەت@@ 2
مۇھتاج 2
مۇھەب@@ 2
مۈر@@ 2
مېترو@@ 2
مېتىر 2
مېل@@ 2
مېنتى 2
مېنىڭ@@ 2
مېي@@ 2
مېيىپ@@ 2
مېڭىشىغا 2
مەت 2
مەدھىيە 2
مەر@@ 2
مەزگى@@ 2
مەشۇ@@ 2
مەكتىن 2
مەكتىپىنىڭ 2
مەلىكىسى 2
مەمۇر@@ 2
مەي@@ 2
مەيلى 2
مەيىن 2
ناتو@@ 2
نادىر 2
ناشتى@@ 2
نالىغا 2
نام 2
نامەلۇم 2
نتال 2
ند@@ 2
نزا 2
نسى 2
نسى@@ 2
نغان 2
نلىققا 2
نمە 2
نىخانىسى 2
نىدىكىلەر 2
نىدۇ 2
نىقاب@@ 2
نىككە 2
نىكىگە 2
نىيەتلىك 2
نىڭى@@ 2
نىۋالغانىدى 2
نيۇيور@@ 2
نچا 2
نچى 2
نگ@@ 2
نۇرغۇن@@ 2
نۇرنى 2
نۇق@@ 2
نەت@@ 2
نەزى@@ 2
نەن 2
ول@@ 2
ومېتىرلىق 2
ون 2
ىدىغاندەك 2
ىدىكىلەر 2
ىدۇ@@ 2
ىۋاتاتتى 2
ياتقۇز@@ 2
ياتقۇزۇ@@ 2
ياجلىق 2
ياداڭ@@ 2
يارا@@ 2
ياستۇ@@ 2
ياشانغان@@ 2
ياشلاردىن 2
ياشلىقلار 2
ياشى@@ 2
ياقا 2
ياقى@@ 2
ياك 2
يانا@@ 2
يانتۇ@@ 2
يانتۇلۇ@@ 2
يانىڭ 2
ياپونىيە@@ 2
ياڭرات@@ 2
ياۋۇ@@ 2
يتتى 2
يدەك 2
يلاپ 2
يلىرى 2
يمەن 2
يوت@@ 2
يوتقان 2
يوتىسىغا 2
يوقات@@ 2
يوقاتتى 2
يوللان@@ 2
يوللاۋاتىدۇ 2
يونكا 2
يوپۇر@@ 2
يى 2
يىتىنى 2
يىر@@ 2
يىغا 2
يىغىۋاتاتتى 2
يىللى@@ 2
يىمىرىلگەن 2
يىنىك 2
يىپنى 2
يىپىنىڭ 2
يچى 2
يۆت@@ 2
يۆنىلىش@@ 2
يۆگى@@ 2
يۆگە@@ 2
يۇمۇ@@ 2
يۇي@@ 2
يۇڭى 2
يۈر@@ 2
يۈرى@@ 2
يۈگرەۋاتىدۇ 2
يۈگۈ@@ 2
يېتىش 2
يېتىۋاتىدۇ 2
يېشىغا 2
يېشىپ 2
يېنىقلىق 2
يېنىپ 2
يېڭىدىن 2
يېگۈ@@ 2
يەت 2
يەدە 2
يەسلى 2
يەك@@ 2
يەن@@ 2
پ-@@ 2
پاخال 2
پادىچىنىڭ 2
پاراڭلاشقاچ 2
پارتا 2
پارك 2
پارلامې@@ 2
پارنىكتا 2
پارىژ 2
پارە 2
پاق 2
پالۇبى@@ 2
پالۋان@@ 2
پانا@@ 2
پانىنى 2
پاي@@ 2
پايان@@ 2
پتىكى 2
پلاس@@ 2
پلانې@@ 2
پلىق 2
پلەرنى 2
پورت@@ 2
پوست@@ 2
پولىنى 2
پومپىسى 2
پىئانىنو@@ 2
پىدائى@@ 2
پىس 2
پىشۇر@@ 2
پىشۇرۇ@@ 2
پىلارنى 2
پىلاستىن@@ 2
پىن@@ 2
پىيا@@ 2
پىچاقنى 2
پۇ 2
پۇت@@ 2
پۇرا@@ 2
پۇرۇپ@@ 2
پۇس 2
پۇش@@ 2
پۇق@@ 2
پۇكىي@@ 2
پۇلى 2
پۈت@@ 2
پۈرۈل@@ 2
پېتى@@ 2
پېشاي@@ 2
پەل@@ 2
پەلەمپەي@@ 2
پەمىد@@ 2
چارۋى@@ 2
چاقىدا 2
چاقىنىڭ 2
چالماقتا 2
چان@@ 2
چانىسى 2
چاپلا@@ 2
چاپلىما 2
چاپلىماقچى 2
چاپماقتا 2
چاچلىرىنى 2
چتىن 2
چوت 2
چوش@@ 2
چوق@@ 2
چوقۇم 2
چوقۇن@@ 2
چوكىسىنى 2
چوڭ@@ 2
چىت 2
چىدە 2
چىسىدىن 2
چىسىمان 2
چىقار@@ 2
چىققاندىن 2
چىقىشىنى 2
چىقىۋاتقانلىقىنى 2
چىلاردىن 2
چىلاش 2
چىلىرىنى 2
چىلىقنى 2
چىلەر 2
چىمداپ 2
چىمدىدى 2
چىملىقنىڭ 2
چىن 2
چياۋ 2
چۆكۈ@@ 2
چۇجۇ@@ 2
چۇل@@ 2
چۈ@@ 2
چۈشمەيدىغان 2
چۈشۈرۈ@@ 2
چۈشۈرۈش 2
چۈشۈرۈپ 2
چۈمبە@@ 2
چېركاۋ@@ 2
چېقىپ 2
چېك@@ 2
چېل@@ 2
چېلىشچىنىڭ 2
چېلىنىدىغان 2
چېچىدىكى 2
چېچەك@@ 2
چەك 2
چەم@@ 2
چەمبىرى@@ 2
چەۋەندا@@ 2
ژى@@ 2
ژۇرنى@@ 2
ڭزا 2
ڭغا 2
ڭنى 2
ڭى 2
گازى 2
گال@@ 2
گاچا 2
گدى 2
گرو@@ 2
گلار 2
گنو@@ 2
گىتا@@ 2
گىدى 2
گىر 2
گىرەلىشىپ 2
گىرەلە@@ 2
گىسى 2
گىلەمنى 2
گىنى@@ 2
گىيا@@ 2
گىيىلىك 2
گۇرۇپپى@@ 2
گۈ 2
گۈرجەك@@ 2
گۈسى 2
گۈللۈك@@ 2
گۈلىنى 2
گۈن 2
گۈنى 2
گۈچىلەر 2
گې 2
گەك@@ 2
گەنلەر 2
گەي@@ 2
ھادىسىگە 2
ھاسى@@ 2
ھاشار@@ 2
ھاك 2
ھالى@@ 2
ھانىغا 2
ھاي@@ 2
ھايا@@ 2
ھاياجان@@ 2
ھاۋاس@@ 2
ھويلى@@ 2
ھىنىڭ 2
ھۆ@@ 2
ھۆجج@@ 2
ھۆججەت@@ 2
ھۆكۈم@@ 2
ھۇرۇ@@ 2
ھۈ@@ 2
ھۈنەرۋەن@@ 2
ھېسا@@ 2
ھېكا@@ 2
ھېچ@@ 2
ھەربىي@@ 2
ھەرى@@ 2
ھەرىسىنى 2
ھەل 2
ھەمراھ@@ 2
ھەيرانلىق 2
ھەيكىل@@ 2
ھەپى@@ 2
ۇر 2
ۇرلۇ@@ 2
ۇرلۇق 2
ۈرگەن 2
ۈشتە 2
ۋار@@ 2
ۋاراق@@ 2
ۋاسى@@ 2
ۋاسىتى@@ 2
ۋالغانلىقى 2
ۋالغانلىقىغا 2
ۋالماقتا 2
ۋالى 2
ۋالى@@ 2
ۋالىبول@@ 2
ۋانىدا 2
ۋاھنا@@ 2
ۋىر 2
ۋىس@@ 2
ۋىغى 2
ۋىك@@ 2
ۋىل@@ 2
ۋىن 2
ۋىن@@ 2
ۋىنا 2
ۋىيېت@@ 2
ۋىچىن 2
ۋىۋىس@@ 2
ۋېتىلگەن 2
ۋېل@@ 2
ۋېلسىپى@@ 2
ۋېلىسىپىتىگە 2
ۋېلىندى 2
ۋېلىنىدۇ 2
ۋەتلىك 2
ۋەتەنپەر@@ 2
ۋەزىپى@@ 2
ۋەن 2
ېرى@@ 2
ېرىنى 2
ېماتى@@ 2
ېي@@ 2
ەتلىك 2
ەر 2
ەردە 2
ەك 2
ەك@@ 2
ەكنى 2
ەنىۋى 2
% 1
.com 1
00@@ 1
08 1
14@@ 1
16 1
2.@@ 1
21 1
22 1
27 1
28 1
28@@ 1
2@@ 1
33 1
35 1
39 1
3d 1
41 1
43 1
44 1
46 1
4@@ 1
500@@ 1
52 1
53 1
661 1
697 1
6@@ 1
70 1
84 1
85 1
93 1
94 1
a@@ 1
aa@@ 1
aar@@ 1
ace 1
ad 1
ado 1
adobe 1
aero@@ 1
ally 1
amc 1
an 1
anne 1
app@@ 1
arri@@ 1
asm 1
asse 1
astro@@ 1
ato@@ 1
au 1
aveda 1
avrovul@@ 1
b 1
b@@ 1
baltimore 1
barre@@ 1
be 1
beach 1
bell 1
bo@@ 1
bon 1
bongo 1
book 1
bre@@ 1
bren@@ 1
broni@@ 1
bru@@ 1
bua 1
bug 1
bum 1
bus@@ 1
business 1
buster 1
by 1
c.@@ 1
cafe 1
can@@ 1
care 1
carhar@@ 1
cari@@ 1
cas@@ 1
cd 1
ce 1
cg@@ 1
ch 1
clause 1
coeds 1
com 1
crist@@ 1
crocs 1
cur@@ 1
d@@ 1
da@@ 1
dave 1
deep 1
dele@@ 1
deli 1
demo@@ 1
den@@ 1
dh@@ 1
didgeri@@ 1
dies 1
din@@ 1
dmc 1
dor@@ 1
dos 1
dr 1
dro@@ 1
du 1
duck 1
dv@@ 1
earth 1
easy 1
ebay 1
ec 1
ed@@ 1
ei@@ 1
elo@@ 1
em 1
en 1
end 1
energi@@ 1
eo 1
er 1
f 1
fairway 1
far@@ 1
fd 1
fez 1
fire@@ 1
fired 1
fitness 1
forever 1
fox 1
frog 1
g 1
gamecu@@ 1
gardens 1
gators 1
gelados 1
gen@@ 1
ggles 1
gi@@ 1
glam@@ 1
gn@@ 1
gnon 1
gol@@ 1
gon@@ 1
graf@@ 1
groucho 1
gste@@ 1
gton 1
ha 1
heart 1
hello 1
hi-vi@@ 1
hla@@ 1
ho 1
hodo 1
holmgre@@ 1
hopper 1
hortons 1
hunt 1
i 1
ice 1
ig@@ 1
ima@@ 1
in 1
ins 1
ip@@ 1
iphone 1
ire 1
itti 1
jacks 1
ji 1
joe 1
john 1
jump 1
k-@@ 1
k@@ 1
ke 1
ken@@ 1
ker@@ 1
ki 1
king 1
kiss 1
koffe@@ 1
kok 1
komo@@ 1
l 1
l.e.@@ 1
la 1
land 1
leak 1
lebee 1
leis 1
les 1
lexmark 1
lie 1
life 1
lou 1
lounge 1
ly@@ 1
mae 1
mark 1
marley 1
maruga 1
marx 1
mer@@ 1
mi@@ 1
miami 1
mike 1
monk 1
mosa 1
mp@@ 1
mul@@ 1
n 1
nap@@ 1
nehill 1
ney 1
nis 1
ny 1
o-@@ 1
obl@@ 1
ode@@ 1
of 1
ou 1
ozzy 1
pa@@ 1
pabst 1
pad 1
pad@@ 1
pain 1
pee 1
penske 1
pepper 1
perla 1
pitbull 1
pnc 1
po@@ 1
pop 1
por@@ 1
port 1
posta@@ 1
pow 1
ppens 1
pper 1
prari@@ 1
psy@@ 1
q 1
quattro 1
que 1
qui@@ 1
rad@@ 1
ran@@ 1
rav@@ 1
rocks 1
rodeo 1
rodgers 1
rona 1
roper 1
row@@ 1
run 1
ryan 1
s.c.@@ 1
schi@@ 1
scoo@@ 1
shine 1
shoeg@@ 1
shop 1
ski 1
sky 1
sla@@ 1
smu 1
sor@@ 1
soy 1
spark@@ 1
spee@@ 1
sprin@@ 1
stap@@ 1
sting 1
sub@@ 1
sugar@@ 1
suv 1
sva 1
sveral 1
swatch 1
swo 1
sx@@ 1
t-@@ 1
taga 1
tambor 1
tan@@ 1
tebow 1
tech 1
tehel@@ 1
tic@@ 1
tin@@ 1
tools 1
trad@@ 1
tt 1
turf 1
u.@@ 1
uma 1
ump 1
un@@ 1
union 1
ute@@ 1
uw 1
uڭق@@ 1
vans 1
vespa 1
vette 1
victori@@ 1
vir@@ 1
virou 1
vo 1
vons 1
w 1
wall-@@ 1
walter 1
watcher 1
wee 1
whack 1
whistle 1
wing 1
wmo@@ 1
woks 1
wow 1
xo@@ 1
yar@@ 1
yo 1
ypoun@@ 1
z 1
zales 1
zer 1
zno@@ 1
ئ@@ 1
ئا 1
ئارمىيى@@ 1
ئاز@@ 1
ئاشىق-@@ 1
ئاك@@ 1
ئالا@@ 1
ئالد@@ 1
ئالدى@@ 1
ئالغۇ@@ 1
ئان@@ 1
ئانى@@ 1
ئايرو@@ 1
ئايرىم@@ 1
ئاپېل@@ 1
ئاگاھلان@@ 1
ئوبا@@ 1
ئوت-@@ 1
ئوتى@@ 1
ئوخشايدى@@ 1
ئوغۇ@@ 1
ئوقۇت@@ 1
ئول@@ 1
ئولو@@ 1
ئىستىق@@ 1
ئىسسى@@ 1
ئىسقىر@@ 1
ئىسكى@@ 1
ئىسكىل@@ 1
ئىسىم@@ 1
ئىشا@@ 1
ئىشتان@@ 1
ئىشلەت@@ 1
ئىكەن@@ 1
ئىلەڭ@@ 1
ئىي 1
ئىپ@@ 1
ئۆزگىرى@@ 1
ئۆسۈم@@ 1
ئۆلچەم@@ 1
ئۆمى@@ 1
ئۆمىك@@ 1
ئۆچۈر@@ 1
ئۇز@@ 1
ئۇزۇن@@ 1
ئۇيا@@ 1
ئۇچى@@ 1
ئۇچۇرۇ@@ 1
ئۈسكۈن@@ 1
ئېتىلدۇر@@ 1
ئېدى@@ 1
ئېكسپېدىت@@ 1
ئېمىز@@ 1
ئېيت@@ 1
ئېگىرى@@ 1
ئەترى@@ 1
ئەتىر@@ 1
ئەدى@@ 1
ئەركى@@ 1
ئەك@@ 1
ئەمە@@ 1
ئەمەس@@ 1
ئەڭ@@ 1
ئەگ@@ 1
اتا 1
اتتىن 1
اتو@@ 1
اتى@@ 1
اچ 1
بارى@@ 1
برى@@ 1
برې@@ 1
بلە@@ 1
بويۇنتۇرۇ@@ 1
بىتى 1
بىدىن 1
بىرە@@ 1
بىرەي@@ 1
بىليار@@ 1
بىلەي@@ 1
بىمار@@ 1
بۆلج@@ 1
بۇر 1
بۇرغى@@ 1
بۇرمى@@ 1
بۇل 1
بەت@@ 1
بەدە@@ 1
بەزى@@ 1
تاتىنىڭ 1
تاخ@@ 1
تاختى@@ 1
تارىخى@@ 1
تاغا 1
تايى@@ 1
تبول 1
ترا@@ 1
ترامۋا@@ 1
تسىيە 1
تقى@@ 1
تكى@@ 1
تلەر 1
توسال@@ 1
تىجارەتچى@@ 1
تىدا@@ 1
تىس 1
تىكىنى 1
تىلەم@@ 1
تىمسا@@ 1
تىنچى 1
تۇخۇ@@ 1
تۇرما 1
تۇپ@@ 1
تېشى@@ 1
تېڭى@@ 1
تەبەسسۇ@@ 1
تەربى@@ 1
تەرلىك 1
تەكشى@@ 1
تەكشۈ@@ 1
تەي@@ 1
تەيلەن 1
تەپسى@@ 1
تەڭشى@@ 1
تەۋرى@@ 1
تەۋەك@@ 1
جابدۇ@@ 1
جىد@@ 1
جىل@@ 1
جىم@@ 1
جىمجى@@ 1
جۇڭگولۇ@@ 1
جەم@@ 1
جەمئى@@ 1
جەنۇ@@ 1
خارا@@ 1
خارابى@@ 1
خاراك@@ 1
خاشى@@ 1
خانىم@@ 1
ختا 1
خى 1
خۇشال@@ 1
خېرىدار@@ 1
خەل@@ 1
خەنزۇ@@ 1
داستى@@ 1
دالغان 1
داڭ@@ 1
ددا 1
دلىق 1
دو 1
دور 1
دوستۇ@@ 1
دوقمۇ@@ 1
دومىن@@ 1
دىشى 1
دىغان 1
دىق@@ 1
دىك@@ 1
دىنوزا@@ 1
دىي 1
دىپلو@@ 1
دۆلى@@ 1
دۇبۇ@@ 1
دۇز 1
دۇمبا@@ 1
دۈ@@ 1
دېرى@@ 1
دېرىز@@ 1
دېھقان@@ 1
دەت@@ 1
دەرۋازى@@ 1
دەم@@ 1
راتتى 1
راش@@ 1
راق@@ 1
راك@@ 1
رالىق 1
رانسى@@ 1
رانلىق 1
رايو@@ 1
راھى@@ 1
رىد@@ 1
رىستى@@ 1
رىقى 1
رىپ@@ 1
رۇز 1
رۈ@@ 1
رۋا 1
رېستو@@ 1
رېشاتكى@@ 1
رېمونت@@ 1
رېپى@@ 1
رەتنى 1
رەز 1
رەقى@@ 1
رەۋاتىدۇ 1
زان 1
زاپ@@ 1
زم@@ 1
زىش 1
زىۋاتىدۇ 1
زگە 1
زۇ 1
زۇر 1
زېھ@@ 1
زەھەر@@ 1
سابى@@ 1
سار@@ 1
سارىي@@ 1
ساق 1
ساقىلى@@ 1
ساليو@@ 1
سانجى@@ 1
سانلار 1
ساھىل@@ 1
ستان@@ 1
ستون 1
سسور 1
سقا 1
سكو@@ 1
سودىگەر@@ 1
سور@@ 1
سىتاربا@@ 1
سىپى@@ 1
سۆرە@@ 1
سۇرۇ@@ 1
سۇيۇ@@ 1
سۈرئەت@@ 1
سېستى@@ 1
سەر@@ 1
سەرگەر@@ 1
سەك@@ 1
سەن 1
سەگەنچۈ@@ 1
سەۋر@@ 1
سەۋە@@ 1
شا 1
شال@@ 1
شامپ@@ 1
شان@@ 1
شاڭجا@@ 1
شتۈرۈپ 1
شوت@@ 1
شىتات@@ 1
شىر@@ 1
شىق 1
شىلە@@ 1
شىۋاتقان 1
شچان 1
شۇغۇللى@@ 1
شەن@@ 1
شەھى@@ 1
غازا@@ 1
غاق 1
غاي 1
غىر 1
غىرى@@ 1
غىن 1
غۇن 1
فران@@ 1
فون 1
فۇ@@ 1
قاتنا@@ 1
قاتنى@@ 1
قاقا@@ 1
قالايمى@@ 1
قاچ 1
قاڭ@@ 1
قتىن@@ 1
قتەك 1
قسىز 1
قورال@@ 1
قورشا@@ 1
قورقۇن@@ 1
قوشۇن@@ 1
قولتۇق@@ 1
قومان@@ 1
قومۇ@@ 1
قوڭ@@ 1
قىستى@@ 1
قىستۇرۇ@@ 1
قىش@@ 1
قىلىق 1
قىنىغا 1
قىياپ@@ 1
قىڭ@@ 1
قىۋەتتى 1
قۇت@@ 1
قۇرۇش 1
قۇن 1
قۇيرۇ@@ 1
قۇچ@@ 1
قېرى@@ 1
قېرىن@@ 1
قېيى@@ 1
قەبرى@@ 1
قەدە@@ 1
قەسىدى@@ 1
قەۋەت@@ 1
كاتى@@ 1
كاتەك@@ 1
كارا 1
كارى 1
كالتەك@@ 1
كرېست@@ 1
كور@@ 1
كوكا@@ 1
كومان@@ 1
كونسې@@ 1
كونۇ@@ 1
كىرىسلو@@ 1
كىنا 1
كىگىچە 1
كۆت@@ 1
كۆتى@@ 1
كۆرگەز@@ 1
كۆرۈن@@ 1
كۆرۈنۈش@@ 1
كۆرەلەي@@ 1
كۆزنەك@@ 1
كۆل@@ 1
كۆلچەك@@ 1
كۆپ@@ 1
كۇر@@ 1
كۈر@@ 1
كۈم 1
كۈنۈپ 1
كۋار@@ 1
كېلىنچەك@@ 1
كېيى@@ 1
كەتنىڭ 1
لات@@ 1
لاتا@@ 1
لاد 1
لارچە 1
لازى@@ 1
لاس@@ 1
لاسۋىگا@@ 1
لاشقاندا 1
لامپۇ@@ 1
لان 1
للى 1
لىت@@ 1
لىفى@@ 1
لىقىنىڭ 1
لىما@@ 1
لىمىنى 1
لىمەكتە 1
لىڭ 1
لىڭ@@ 1
لگە 1
لۈش 1
لۈپ 1
لۈۋاتىدۇ 1
لەت 1
لەم 1
لەم@@ 1
لەگ@@ 1
مات 1
ماترو@@ 1
ماتېرى@@ 1
ماسلاش@@ 1
ماش@@ 1
ماكان@@ 1
ماگىزى@@ 1
موتوسىكى@@ 1
مول@@ 1
مون@@ 1
مىدە 1
مىغاندەك 1
مىقى 1
مىكرو@@ 1
مىلى@@ 1
مىلىچ@@ 1
مىيەت 1
مپ@@ 1
مپا 1
مپىسى 1
مچى 1
مۆ@@ 1
مۇزا@@ 1
مۇزىكانت@@ 1
مۇستە@@ 1
مۇسكۇل@@ 1
مۇكا@@ 1
مۇكاپات@@ 1
مۇلازىمەت@@ 1
مۇم@@ 1
مۇناسى@@ 1
مۈ@@ 1
مۈڭگۈ@@ 1
مېت@@ 1
مېتال@@ 1
مېتىرلىق 1
مېخانى@@ 1
مېر 1
مەدەنى@@ 1
مەرۋا@@ 1
مەز@@ 1
مەشغۇ@@ 1
مەشى@@ 1
مەكتە@@ 1
مەلھى@@ 1
مەيدان@@ 1
نائۇش@@ 1
ناتتى 1
ناق 1
نال 1
ناي@@ 1
ناپ 1
نقى 1
نكا 1
نلىك 1
ننى@@ 1
نو 1
نىتى 1
نىدە 1
نىس@@ 1
نىش 1
نىقلىق 1
نىم@@ 1
نىگە 1
نچىسى 1
نچە 1
نگەن 1
نۇۋاتىدۇ 1
نېت 1
نە 1
نەت 1
نەر@@ 1
نەچ@@ 1
ولغا 1
ونى 1
ىدىكىلەرنىڭ 1
ىۋاتىدۇ 1
ياخ@@ 1
ياردى@@ 1
ياسان@@ 1
ياق 1
ياققا 1
يال 1
يامغۇر@@ 1
يامى@@ 1
ياپراق@@ 1
يدى@@ 1
يس 1
يىتىنىڭ 1
يىرا@@ 1
يىل 1
يىڭ@@ 1
يۇك@@ 1
يۇل@@ 1
يۈد@@ 1
يۈدۈ@@ 1
يۈگ@@ 1
يۈگۈرە@@ 1
يېت@@ 1
يېتەكچى@@ 1
يېك@@ 1
يەتلىك 1
يەر@@ 1
يەسىنىڭ 1
پا 1
پاخ@@ 1
پارات 1
پاراڭ@@ 1
پاراڭلى@@ 1
پاراۋو@@ 1
پان 1
پان@@ 1
پتىك 1
پمۇ 1
پنىڭ 1
پوسۇل@@ 1
پوكىيى@@ 1
پىقى 1
پىك 1
پىي 1
پىيات@@ 1
پۇق 1
پۇقرا@@ 1
پۇكەي@@ 1
پۈرۈش@@ 1
پېشانى@@ 1
پەر 1
پەردى@@ 1
پەرى@@ 1
پەلە@@ 1
چا 1
چاقتا 1
چامباش@@ 1
چانلىق 1
چوت@@ 1
چىتلا@@ 1
چىرا@@ 1
چىرمى@@ 1
چىس@@ 1
چىسىدا 1
چىقىدا 1
چىقىر@@ 1
چىلىرىغا 1
چۆم@@ 1
چەكلىك 1
چەمبى@@ 1
ژ 1
ڭدا 1
ڭگە 1
گا 1
گار@@ 1
گارت 1
گان 1
گان@@ 1
گاڭگى@@ 1
گولۇ@@ 1
گىت@@ 1
گىدىن 1
گىدە 1
گىر@@ 1
گىرى 1
گىمنا@@ 1
گىمناستى@@ 1
گىنى 1
گۈرۈ@@ 1
گېرما@@ 1
گەر@@ 1
ھاۋا@@ 1
ھلان@@ 1
ھوقۇ@@ 1
ھىر@@ 1
ھىندى@@ 1
ھۇ@@ 1
ھۇجۇ@@ 1
ھۈنى@@ 1
ھەت 1
ھەق@@ 1
ھەقى@@ 1
ھەي@@ 1
ھەييار@@ 1
ھەۋە@@ 1
ھەۋەس@@ 1
ۆ 1
ۇرۇپ 1
ۇن 1
ۇن@@ 1
ۇندا@@ 1
ۈ 1
ۈرگۈچىلەر 1
ۈرۈل@@ 1
ۈرۈۋاتىدۇ 1
ۋار 1
ۋارات@@ 1
ۋاز 1
ۋال 1
ۋان 1
ۋرى@@ 1
ۋو 1
ۋولىن@@ 1
ۋوگزا@@ 1
ۋىگە 1
ۋۇ@@ 1
ۋۇر@@ 1
ۋۇرغا 1
ۋېلىسپى@@ 1
ۋېي 1
ۋەتەن@@ 1
ۋەر@@ 1
ۋەزى@@ 1
ۋەك@@ 1
ۋەن@@ 1
ېل@@ 1
ەت 1
ەي@@ 1
ەينەك 1
