a 49208
. 27632
in 14897
the 10957
on 8064
man 7792
is 7534
and 7378
of 6864
with 6179
woman 3976
, 3963
two 3877
are 3721
to 3131
people 3121
at 2939
an 2892
wearing 2623
young 2280
white 2223
shirt 2129
black 2003
his 1969
while 1947
blue 1871
men 1770
sitting 1743
girl 1725
red 1716
boy 1689
dog 1677
standing 1614
playing 1584
group 1552
street 1445
down 1393
walking 1378
front 1276
her 1265
holding 1237
one 1088
water 1061
three 1055
by 1050
women 988
green 920
up 920
little 915
for 906
child 894
looking 889
outside 871
as 863
large 841
through 813
yellow 781
children 768
brown 766
person 753
from 728
ball 726
their 725
hat 724
into 711
small 671
next 664
other 660
dressed 636
some 625
out 621
over 611
building 603
riding 584
running 581
near 571
jacket 566
another 562
around 562
field 536
sidewalk 534
orange 524
crowd 521
beach 520
stands 498
pink 493
sits 493
jumping 491
behind 489
table 480
grass 468
background 460
snow 459
stand 451
bike 449
city 446
's 444
girls 441
air 436
player 429
asian 421
looks 420
wall 417
top 412
dogs 406
several 404
that 404
older 401
four 400
off 394
dress 390
park 389
camera 387
talking 382
lady 380
something 380
soccer 375
along 370
walks 369
guitar 367
boys 364
hair 364
play 363
working 362
together 361
food 357
smiling 353
gray 343
game 340
has 340
picture 340
plays 331
car 329
hand 324
holds 322
it 322
road 314
him 312
bench 310
pants 308
glasses 306
old 304
shorts 304
stage 303
walk 303
sit 301
carrying 300
baby 299
couple 299
side 294
them 290
bicycle 287
face 281
" 280
male 279
pool 279
tree 279
race 275
taking 275
rock 273
each 272
doing 267
across 261
head 261
watching 261
guy 260
dirt 259
jeans 259
there 259
area 258
blond 252
jumps 250
boat 249
hands 248
day 247
ground 246
female 245
room 245
back 244
performing 241
baseball 238
who 237
eating 236
being 233
coat 229
football 229
using 229
striped 227
band 226
suit 226
kids 225
under 224
watch 224
many 223
he 222
horse 222
mouth 221
purple 221
sign 219
long 218
store 218
this 216
sand 213
runs 212
tennis 212
players 209
construction 208
look 208
sunglasses 208
reading 207
its 205
clothing 203
microphone 202
mountain 200
basketball 198
dark 198
ocean 198
toy 198
during 197
workers 197
middle 194
watches 194
climbing 193
t-shirt 193
uniform 192
past 191
elderly 190
restaurant 188
against 187
helmet 187
team 185
train 185
work 185
dancing 183
window 183
rides 181
be 180
about 178
chair 178
they 178
or 177
covered 175
posing 175
trees 174
five 173
having 173
outdoor 173
wooden 173
waiting 171
swimming 169
all 168
getting 168
very 167
floor 166
trying 165
ice 164
colorful 163
skateboard 163
bag 162
busy 160
fence 159
shirts 159
singing 159
line 156
jump 154
laying 150
book 149
cart 149
hill 149
market 149
truck 148
bright 147
tan 147
hats 146
inside 146
ride 146
cap 145
kitchen 145
others 145
cellphone 144
grassy 144
path 144
big 143
high 143
someone 143
making 142
bus 141
clothes 141
motorcycle 140
takes 140
body 139
light 139
umbrella 139
full 138
night 138
outfit 138
towards 138
brick 137
enjoying 137
track 137
metal 135
river 134
swing 134
paper 133
ready 133
she 131
piece 129
tank 129
shop 128
colored 126
open 126
sweater 126
trick 125
above 124
board 124
painting 124
worker 124
lake 123
adults 122
going 122
music 121
dance 120
hard 120
run 120
snowy 120
vest 120
shopping 119
surrounded 119
wave 119
onto 118
stick 118
stone 118
uniforms 118
crowded 117
outdoors 117
house 116
photo 116
backpack 115
beside 115
phone 115
smiles 115
kid 114
pole 113
african 112
drinking 112
gear 112
hockey 112
subway 112
family 111
american 110
set 109
toddler 109
arms 108
event 108
fire 108
gathered 108
guys 108
flowers 107
hanging 107
police 107
away 106
bridge 106
catch 106
beautiful 105
preparing 105
costume 103
leaning 103
lot 103
object 103
sleeping 103
steps 103
after 102
fishing 102
machine 101
bar 100
fountain 100
plaid 100
rope 100
like 99
shirtless 99
stairs 99
take 98
adult 97
arm 97
rocks 96
shoes 96
graffiti 94
selling 94
sunny 94
does 93
forest 93
glass 93
racing 93
chairs 92
parade 92
pose 92
setting 92
tall 91
both 90
corner 90
putting 90
volleyball 90
frisbee 89
pushing 89
throwing 89
between 88
drink 88
have 88
ladies 88
slide 88
2 87
computer 87
laughing 87
public 87
short 87
wood 87
equipment 86
flag 86
instruments 86
view 86
couch 85
fish 85
pictures 85
cowboy 84
party 84
plastic 84
ramp 84
playground 83
poses 83
sweatshirt 83
trail 83
which 83
woods 83
beard 82
concrete 82
statue 82
sun 82
yard 82
dock 81
midair 81
winter 81
bikes 80
number 80
seated 79
skirt 79
bed 78
distance 78
reads 78
attire 77
bags 77
get 77
just 77
toward 77
what 77
beer 76
cooking 76
six 76
works 76
blond-hair 75
cutting 75
rider 75
vests 75
buildings 74
cross 74
left 74
pulling 74
school 74
where 74
cream 73
middle-aged 73
appears 72
cliff 72
crossing 72
friends 72
lined 72
skateboarder 72
sky 72
station 72
edge 71
few 71
filled 71
instrument 71
mountains 71
showing 71
spectators 71
tent 71
art 70
bearded 70
cars 70
horses 70
jersey 70
mother 70
show 70
court 69
make 69
nearby 69
net 69
performs 69
right 69
scarf 69
apron 68
bowling 68
carries 68
concert 68
driving 68
grill 68
perform 68
snowboarder 68
fruit 67
leaves 67
shore 67
time 67
boots 66
cigarette 66
coffee 66
dresses 66
painted 66
parked 66
structure 66
students 66
various 66
vendor 66
cup 65
gentleman 65
goggles 65
smile 65
surfer 65
vehicle 65
younger 65
bottle 64
box 64
door 64
drums 64
flower 64
flying 64
lying 64
martial 64
smoking 64
talks 64
bathing 63
eyes 63
flags 63
hit 63
home 63
kicking 63
new 63
no 63
shot 63
-@@ 62
arts 62
jackets 62
newspaper 62
paint 62
prepares 62
rain 62
rocky 62
rodeo 62
safety 62
swinging 62
waves 62
bucket 61
conversation 61
costumes 61
different 61
gather 61
gloves 61
indian 61
parking 61
practicing 61
bunch 60
cleaning 60
competition 60
hold 60
ladder 60
listening 60
roof 60
scene 60
uses 60
blanket 59
items 59
onlookers 59
skateboarding 59
staring 59
suits 59
wet 59
audience 58
balloon 58
bicycles 58
bikini 58
bull 58
desk 58
empty 58
es 58
giving 58
lawn 58
meal 58
pile 58
railing 58
cake 57
drinks 57
gets 57
hot 57
leaps 57
military 57
s 57
bird 56
cement 56
display 56
gathering 56
ing 56
pointing 56
sliding 56
sports 56
vegetables 56
before 55
biker 55
bowl 55
competing 55
facing 55
feet 55
stop 55
streets 55
wedding 55
basket 54
can 54
helmets 54
huge 54
mask 54
platform 54
speaking 54
bride 53
class 53
classroom 53
coming 53
ed 53
match 53
silver 53
son 53
surfing 53
teams 53
tie 53
tries 53
alley 52
climbs 52
father 52
marathon 52
purse 52
sings 52
ski 52
skier 52
surfboard 52
traditional 52
wait 52
y 52
animal 51
chasing 51
counter 51
er 51
fighting 51
gold 51
kissing 51
lit 51
musicians 51
rail 51
screen 51
way 51
3 50
break 50
ers 50
females 50
pass 50
same 50
stroller 50
country 49
go 49
happy 49
kneeling 49
lap 49
re@@ 49
runner 49
shoulder 49
sunset 49
ted 49
throw 49
waits 49
walkway 49
writing 49
attempting 48
bald 48
blowing 48
business 48
christmas 48
lights 48
scooter 48
seen 48
sort 48
talk 48
violin 48
waving 48
course 47
e 47
e@@ 47
outfits 47
overlooking 47
place 47
signs 47
skating 47
tables 47
artist 46
blond-haired 46
bubbles 46
hole 46
mirror 46
officer 46
says 46
urban 46
balloons 45
base 45
chinese 45
close 45
do 45
end 45
fixing 45
giant 45
leans 45
life 45
t 45
alone 44
brunette 44
cafe 44
collar 44
faces 44
foreground 44
gym 44
helping 44
i 44
leather 44
leg 44
made 44
plate 44
site 44
skate 44
swim 44
teenage 44
umbrellas 44
asleep 43
brightly 43
clown 43
dancers 43
electric 43
enjoy 43
headphones 43
legs 43
meat 43
mud 43
sticks 43
among 42
diving 42
falling 42
golf 42
makes 42
office 42
officers 42
passing 42
sandals 42
stadium 42
swings 42
washing 42
wears 42
; 41
barefoot 41
church 41
dark-haired 41
dirty 41
doorway 41
goal 41
heads 41
hiking 41
multicolored 41
musical 41
photographer 41
skiing 41
toys 41
accordion 40
canoe 40
drawing 40
laptop 40
leash 40
males 40
picking 40
reaching 40
row 40
s@@ 40
singer 40
throws 40
traffic 40
video 40
below 39
digging 39
led 39
members 39
performance 39
relaxing 39
shallow 39
wheel 39
atop 38
balls 38
bicyclist 38
cat 38
catches 38
catching 38
ds 38
flip 38
foot 38
gives 38
hugging 38
microscope 38
passes 38
shovel 38
square 38
ts 38
tunnel 38
van 38
bat 37
chef 37
climb 37
drum 37
flies 37
fun 37
garden 37
here 37
kick 37
leaping 37
lone 37
prepare 37
resting 37
shows 37
sled 37
sleeps 37
stunt 37
sweeping 37
tattoo 37
' 36
beige 36
coats 36
cold 36
conversing 36
d@@ 36
daughter 36
desert 36
friend 36
hoodie 36
hose 36
individuals 36
karate 36
lots 36
move 36
photograph 36
pond 36
sculpture 36
splashing 36
teeth 36
tire 36
trunks 36
upside 36
customers 35
deep 35
gun 35
held 35
how 35
jogging 35
pier 35
plants 35
points 35
telescope 35
these 35
town 35
un@@ 35
underneath 35
well 35
wrestling 35
cane 34
carnival 34
cloth 34
cut 34
cyclist 34
d 34
dances 34
ding 34
eat 34
g@@ 34
hiker 34
including 34
local 34
ly 34
mat 34
moving 34
o 34
opposing 34
project 34
roller 34
rolling 34
shoe 34
shoulders 34
sing 34
themselves 34
waters 34
without 34
block 33
circle 33
crosswalk 33
crying 33
de@@ 33
dinner 33
fight 33
infant 33
lab 33
makeup 33
matching 33
mural 33
produce 33
pulled 33
racket 33
runners 33
straw 33
taken 33
trampoline 33
tricks 33
wooded 33
athlete 32
attempts 32
bicyclists 32
booth 32
closed 32
covering 32
formal 32
gymnast 32
nose 32
opening 32
performer 32
picnic 32
ring 32
sewing 32
stuffed 32
surface 32
ting 32
trash 32
wear 32
balcony 31
blouse 31
boxes 31
center 31
chases 31
cheerleaders 31
cow 31
goes 31
help 31
hikers 31
himself 31
lays 31
lunch 31
oriental 31
pedestrians 31
pitcher 31
pushes 31
sandy 31
skis 31
slope 31
softball 31
teenagers 31
third 31
bent 30
deck 30
device 30
hammer 30
in@@ 30
indoor 30
kind 30
log 30
neck 30
not 30
p@@ 30
paved 30
pulls 30
puts 30
rest 30
seven 30
speaks 30
staircase 30
turn 30
books 29
dancer 29
driver 29
drives 29
enjoys 29
evening 29
ex@@ 29
fallen 29
festival 29
gate 29
gentlemen 29
grocery 29
heavy 29
hoop 29
land 29
lo@@ 29
marching 29
o@@ 29
overalls 29
pe@@ 29
ps 29
robe 29
see 29
shaking 29
swims 29
wetsuit 29
al 28
brown-haired 28
clear 28
cloudy 28
di@@ 28
fingers 28
foreign 28
garb 28
golden 28
hangs 28
jean 28
kayak 28
khaki 28
kicks 28
l 28
laundry 28
ledge 28
lies 28
lift 28
native 28
nice 28
porch 28
pot 28
pouring 28
protective 28
puddle 28
red-haired 28
robes 28
shaving 28
sheet 28
ship 28
steep 28
stream 28
t@@ 28
teenager 28
tracks 28
type 28
waterfall 28
wrapped 28
airplane 27
arena 27
attached 27
backyard 27
birds 27
blocks 27
bread 27
checking 27
colors 27
er@@ 27
eye 27
fair 27
k 27
luggage 27
m 27
n 27
opposite 27
paddling 27
palm 27
piano 27
podium 27
poles 27
put 27
reaches 27
red-hair 27
sale 27
saxophone 27
sea 27
shooting 27
shoveling 27
skirts 27
soldiers 27
try 27
balancing 26
camouflage 26
clean 26
cones 26
curb 26
denim 26
der 26
goalie 26
hula 26
i@@ 26
image 26
inflatable 26
kiss 26
laugh 26
ling 26
mound 26
part 26
pavement 26
polo 26
poster 26
ro@@ 26
rugby 26
seat 26
soldier 26
string 26
ter 26
tongue 26
tops 26
wheelchair 26
windows 26
wine 26
an@@ 25
ar@@ 25
bikers 25
bottom 25
buying 25
ch@@ 25
courtyard 25
curly 25
cyclists 25
eats 25
en@@ 25
f@@ 25
fabric 25
fall 25
fans 25
flight 25
floating 25
frame 25
fresh 25
hand@@ 25
happily 25
juggling 25
keyboard 25
laughs 25
low 25
man@@ 25
married 25
motorcycles 25
musician 25
professional 25
raft 25
railroad 25
raised 25
riders 25
round 25
sell 25
shade 25
step 25
stool 25
student 25
swimsuit 25
tools 25
tractor 25
walls 25
york 25
4 24
acoustic 24
al@@ 24
appear 24
b@@ 24
backwards 24
bandanna 24
boats 24
bubble 24
bucking 24
carriage 24
cheering 24
closeup 24
club 24
either 24
floral 24
garbage 24
goods 24
groom 24
guard 24
hurdle 24
jerseys 24
knee 24
les 24
living 24
ls 24
marketplace 24
moves 24
multiple 24
nap 24
pair 24
pajamas 24
plane 24
plant 24
santa 24
scaffolding 24
shown 24
socks 24
spray 24
st 24
surf 24
suspended 24
touching 24
tu@@ 24
tube 24
use 24
you 24
advertisement 23
airport 23
animals 23
backpacks 23
caught 23
chain 23
climber 23
dining 23
direction 23
dry 23
escalator 23
fenced 23
german 23
hay 23
hood 23
hooded 23
japanese 23
kneels 23
landscape 23
le 23
long-haired 23
magazine 23
n@@ 23
paints 23
pipe 23
plaza 23
po@@ 23
serving 23
sheep 23
st@@ 23
stove 23
ti@@ 23
towel 23
underwater 23
welding 23
! 22
amusement 22
ate 22
athletic 22
ation 22
bending 22
bmx 22
brushing 22
candy 22
caucasian 22
checkered 22
decorated 22
examining 22
fast 22
gravel 22
grilling 22
individual 22
m@@ 22
mom 22
money 22
neon 22
obstacle 22
operating 22
orchestra 22
participating 22
post 22
referee 22
ropes 22
seems 22
sport 22
summer 22
teacher 22
things 22
thrown 22
vehicles 22
( 21
5 21
als 21
apple 21
ar 21
ated 21
attempt 21
atv 21
barbecue 21
benches 21
button 21
chest 21
co@@ 21
compete 21
cone 21
crouches 21
feeding 21
firefighters 21
good 21
haircut 21
hallway 21
harness 21
heels 21
hitting 21
map 21
muddy 21
only 21
opponent 21
passengers 21
peace 21
photographs 21
pit 21
practice 21
presentation 21
print 21
racer 21
rowing 21
scuba 21
se@@ 21
sets 21
sharing 21
ste@@ 21
sticking 21
studio 21
t-shirts 21
tourists 21
tub 21
v@@ 21
wagon 21
wi@@ 21
) 20
a@@ 20
action 20
also 20
bar@@ 20
bathroom 20
but 20
carpet 20
chase 20
cleans 20
do@@ 20
drummer 20
ear 20
ears 20
eight 20
figure 20
fly 20
fruits 20
garage 20
groups 20
guitars 20
hall 20
headscarf 20
jumpsuit 20
jungle 20
king 20
long-sleeved 20
machinery 20
min@@ 20
model 20
motocross 20
motorcyclist 20
mustache 20
navy 20
patio 20
policeman 20
pull 20
racetrack 20
rests 20
sandwich 20
se 20
sink 20
skateboards 20
snowboard 20
snowboarding 20
speech 20
sporting 20
start 20
stones 20
style 20
th@@ 20
tile 20
tool 20
tre@@ 20
u@@ 20
wide 20
wire 20
y@@ 20
ahead 19
amp 19
baskets 19
bath 19
be@@ 19
beam 19
beverage 19
ble 19
boardwalk 19
bushes 19
c@@ 19
ceiling 19
coach 19
college 19
color 19
cricket 19
crouching 19
dark-skinned 19
discussion 19
dune 19
eastern 19
fancy 19
first 19
g 19
great 19
half 19
herself 19
hillside 19
horseback 19
indoors 19
ine 19
intersection 19
ked 19
lane 19
leaving 19
medical 19
mi@@ 19
mo@@ 19
museum 19
narrow 19
neighborhood 19
observe 19
petting 19
possibly 19
puck 19
routine 19
sells 19
shaped 19
shoot 19
slides 19
smoke 19
snow-covered 19
stopped 19
swimmer 19
tag 19
tattooed 19
to@@ 19
trumpet 19
vendors 19
army 18
birthday 18
bottles 18
bow 18
brush 18
buckets 18
buy 18
cardboard 18
celebrating 18
choir 18
clay 18
container 18
dishes 18
entrance 18
excited 18
fencing 18
fla@@ 18
folding 18
funny 18
ging 18
guitarist 18
helps 18
hospital 18
hugs 18
k@@ 18
la@@ 18
lay 18
live 18
mall 18
maroon 18
microphones 18
mixing 18
mostly 18
nets 18
ons 18
ornate 18
outstretched 18
pieces 18
position 18
protest 18
puppy 18
r@@ 18
read 18
rubber 18
seats 18
shepherd 18
skates 18
snow@@ 18
song 18
squatting 18
uniformed 18
wheels 18
youth 18
ac@@ 17
ad@@ 17
apartment 17
backs 17
balance 17
bars 17
bear 17
belt 17
blows 17
bowls 17
boxing 17
broom 17
c 17
calf 17
ce 17
coloring 17
conference 17
cuts 17
derby 17
doctor 17
doors 17
dreadlocks 17
ethnic 17
finger 17
finish 17
firetruck 17
fisherman 17
flipping 17
furniture 17
got 17
gr@@ 17
grinding 17
handstand 17
head@@ 17
heart 17
inspecting 17
item 17
jockey 17
leading 17
library 17
lines 17
member 17
ments 17
mobile 17
mohawk 17
moment 17
pick 17
polka 17
raises 17
reflective 17
ribbon 17
rink 17
rough 17
rural 17
scenery 17
ses 17
sleeveless 17
smokes 17
space 17
spinning 17
spraying 17
stack 17
stares 17
storefront 17
stretching 17
stripes 17
stroll 17
sts 17
sword 17
tattoos 17
turning 17
us 17
vegetable 17
viewing 17
we 17
& 16
approaching 16
balances 16
balding 16
banner 16
barrel 16
bass 16
batter 16
boards 16
broken 16
candles 16
card 16
carving 16
castle 16
chalk 16
chefs 16
ches 16
clad 16
com@@ 16
computers 16
con@@ 16
cor@@ 16
crane 16
crew 16
dead 16
ders 16
discussing 16
dish 16
duck 16
emergency 16
ent 16
factory 16
farm 16
fix 16
flip-flops 16
float 16
fluffy 16
following 16
free 16
gas 16
gymnasium 16
horn 16
hotel 16
houses 16
intently 16
inter@@ 16
jewelry 16
kite 16
lamp 16
ler 16
lifting 16
listens 16
london 16
me@@ 16
moped 16
motorbike 16
my 16
naked 16
ne@@ 16
nighttime 16
no@@ 16
objects 16
on@@ 16
or@@ 16
overhead 16
p 16
parents 16
pen 16
per@@ 16
pigeons 16
pitch 16
pizza 16
plates 16
races 16
rainy 16
reach 16
si@@ 16
snack 16
sofa 16
speed 16
spread 16
stairway 16
starting 16
surrounding 16
television 16
tied 16
tourist 16
warm 16
y-@@ 16
't 15
advertising 15
amongst 15
at@@ 15
ballerina 15
barber 15
beneath 15
blow 15
branch 15
bu@@ 15
bur@@ 15
called 15
cameras 15
catcher 15
control 15
crosses 15
directions 15
downtown 15
du@@ 15
el@@ 15
electronic 15
elephant 15
engaged 15
engine 15
fan 15
fireman 15
flowered 15
follows 15
forward 15
ful 15
gi@@ 15
headband 15
hits 15
hoops 15
keep 15
ks 15
liquid 15
lounging 15
material 15
more 15
name 15
necklace 15
newborn 15
numerous 15
observing 15
odd 15
papers 15
partially 15
participate 15
patient 15
photos 15
pine 15
pottery 15
pre@@ 15
present 15
pro@@ 15
protesting 15
ra@@ 15
raising 15
redheaded 15
relax 15
repair 15
ri@@ 15
security 15
shades 15
shaved 15
shovels 15
smaller 15
swimmers 15
taxi 15
teammate 15
terrain 15
th 15
theater 15
thin 15
ties 15
training 15
turns 15
unicycle 15
village 15
w@@ 15
wife 15
wings 15
wrestle 15
-like 14
act 14
admiring 14
airborne 14
aisle 14
angel 14
athletes 14
ating 14
bank 14
biking 14
billboard 14
binoculars 14
bo@@ 14
bs 14
calm 14
camel 14
can@@ 14
cape 14
caps 14
cards 14
carry 14
casual 14
ch 14
cobblestone 14
converse 14
cook 14
cool 14
corn 14
crafts 14
ded 14
donkey 14
fake 14
falls 14
firemen 14
gift 14
glove 14
guns 14
h@@ 14
hang 14
homeless 14
hug 14
interacting 14
it@@ 14
job 14
l@@ 14
leads 14
loading 14
lounge 14
machines 14
most 14
ni@@ 14
ous 14
over@@ 14
pan 14
passenger 14
peering 14
performers 14
photographed 14
pillow 14
ping 14
pretty 14
push 14
rainbow 14
receiving 14
repairs 14
rollerblades 14
rows 14
shakes 14
share 14
shining 14
shops 14
silly 14
skiers 14
slightly 14
sp@@ 14
splashes 14
sprinkler 14
ss 14
star 14
steel 14
story 14
straight 14
teaching 14
tents 14
tower 14
trailer 14
trunk 14
upon 14
ves 14
wading 14
we@@ 14
weaving 14
whilst 14
world 14
1 13
as@@ 13
attention 13
autumn 13
b 13
bare 13
barrier 13
been 13
bin 13
bleachers 13
browsing 13
bun@@ 13
burgundy 13
bystanders 13
cans 13
cap@@ 13
car@@ 13
carts 13
case 13
ceremony 13
ces 13
chainsaw 13
check 13
checks 13
cheer 13
coaster 13
come 13
comes 13
consisting 13
cups 13
customer 13
dad 13
debris 13
dimly 13
dough 13
drill 13
dusk 13
eggs 13
en 13
entering 13
examines 13
farmer 13
filling 13
flips 13
flute 13
form 13
gestures 13
greyhound 13
groceries 13
headed 13
hum@@ 13
if 13
ity 13
knit 13
lacrosse 13
landing 13
laptops 13
lead 13
lifted 13
me 13
meeting 13
messy 13
mid 13
ming 13
modern 13
nature 13
observes 13
official 13
order 13
oven 13
overweight 13
paddle 13
paddles 13
places 13
praying 13
pu@@ 13
r 13
rec@@ 13
rod 13
sack 13
sailing 13
saw 13
science 13
sh@@ 13
similar 13
sized 13
skater 13
sneakers 13
so@@ 13
spoon 13
spotted 13
sted 13
stomach 13
studying 13
t-@@ 13
target 13
tea 13
telephone 13
tires 13
tropical 13
was 13
waterfront 13
waterway 13
wheelbarrow 13
alleyway 12
am 12
applying 12
attending 12
bagpipes 12
ballet 12
bamboo 12
beanie 12
beverages 12
bite 12
biting 12
blankets 12
boulder 12
bricks 12
cello 12
chicken 12
cho@@ 12
ck 12
clapping 12
complete 12
cooks 12
countryside 12
covers 12
cowboys 12
d-@@ 12
diver 12
doll 12
drive 12
dust 12
el 12
ering 12
exercise 12
exhibit 12
fe@@ 12
forehead 12
games 12
ge 12
give 12
gymnastics 12
handing 12
heading 12
highway 12
ho@@ 12
ings 12
inspects 12
iron 12
j@@ 12
juice 12
kayaks 12
knees 12
knife 12
lecture 12
let 12
li@@ 12
listen 12
long-sleeve 12
ment 12
merchandise 12
monument 12
movie 12
newly 12
newspapers 12
ning 12
olympics 12
pack 12
paperwork 12
pat@@ 12
patterned 12
ped 12
pigtails 12
pillows 12
pilot 12
placing 12
puppies 12
repairing 12
res 12
rickshaw 12
rollerblading 12
sc@@ 12
scooters 12
screaming 12
seem 12
serves 12
sh 12
shadows 12
shirted 12
shoppers 12
skaters 12
snowsuit 12
so 12
spanish 12
squ@@ 12
stare 12
still 12
stops 12
suitcase 12
sweeps 12
tackle 12
tape 12
teal 12
tee 12
teen 12
texas 12
thumbs 12
tly 12
tossing 12
touches 12
tray 12
turned 12
tv 12
umpire 12
up@@ 12
vi@@ 12
visible 12
visiting 12
wares 12
wheelie 12
wild 12
wires 12
wrap 12
wrestler 12
ws 12
yoga 12
z@@ 12
2012 11
adjusting 11
african-american 11
age 11
aged 11
ages 11
ally 11
arcade 11
arch 11
artwork 11
asians 11
ations 11
auditorium 11
backdrop 11
banjo 11
bi@@ 11
black-haired 11
burning 11
cage 11
cal@@ 11
camping 11
carefully 11
celebration 11
chatting 11
cheek 11
chess 11
chi@@ 11
china 11
closely 11
company 11
couples 11
craft 11
creek 11
crossed 11
crouched 11
ction 11
cur@@ 11
department 11
descent 11
dives 11
dj 11
done 11
dusty 11
els 11
ence 11
et 11
f 11
far 11
fashion 11
firefighter 11
floats 11
focused 11
folded 11
formation 11
gar@@ 11
gathers 11
gen@@ 11
ger 11
gs 11
hut 11
id 11
il@@ 11
injured 11
involved 11
jet 11
john 11
ju@@ 11
kayaking 11
khakis 11
larger 11
laundromat 11
leaf 11
learning 11
lifts 11
lighted 11
location 11
logs 11
loom 11
magazines 11
meet 11
motorcyclists 11
motorized 11
mower 11
mug 11
ny 11
opens 11
out@@ 11
parachute 11
passersby 11
patch 11
pe 11
per 11
picks 11
placed 11
planting 11
played 11
playfully 11
point 11
ponytail 11
poor 11
pping 11
practices 11
printed 11
rally 11
range 11
rapids 11
record 11
rice 11
rollerskating 11
sa@@ 11
salon 11
scouts 11
sed 11
shoreline 11
show@@ 11
sides 11
snowshoes 11
soda 11
speak 11
strange 11
sunlight 11
supplies 11
surgery 11
suspenders 11
swimsuits 11
tackling 11
teens 11
tights 11
til@@ 11
tiny 11
torch 11
tr@@ 11
traveling 11
tricycle 11
trip 11
trolley 11
trucks 11
turquoise 11
underwear 11
ur@@ 11
venue 11
w 11
watched 11
water@@ 11
weather 11
yarn 11
# 10
activity 10
ad 10
ag@@ 10
air@@ 10
america 10
amidst 10
apart 10
approaches 10
ard 10
asia 10
ates 10
belts 10
blazer 10
blood 10
bouquet 10
branches 10
brother 10
canvas 10
care 10
casually 10
cel@@ 10
celebrate 10
chalkboard 10
ched 10
cheese 10
chopping 10
cked 10
col@@ 10
collared 10
contraption 10
cop 10
cover 10
cr@@ 10
cre@@ 10
creating 10
cute 10
decorative 10
displaying 10
displays 10
driveway 10
dy 10
earphones 10
embracing 10
experiment 10
fa@@ 10
facility 10
finishing 10
for@@ 10
frozen 10
fully 10
fur 10
furry 10
gallery 10
gaze 10
gazes 10
goat 10
gray-haired 10
gu@@ 10
guards 10
handrail 10
he@@ 10
headdress 10
helicopter 10
hiding 10
hike 10
hotdog 10
incline 10
involving 10
jo@@ 10
juggles 10
ky 10
le@@ 10
leap 10
leggings 10
lens 10
leotard 10
lighting 10
lining 10
link 10
load 10
lobby 10
located 10
lu@@ 10
maintenance 10
mar@@ 10
march 10
mas@@ 10
mat@@ 10
med 10
mexican 10
monitor 10
mop 10
morning 10
ms 10
ned 10
numbers 10
nurses 10
ol@@ 10
oranges 10
our 10
pa@@ 10
pads 10
peeking 10
pin 10
pins 10
portrait 10
pots 10
pri@@ 10
process 10
products 10
quarterback 10
quickly 10
racers 10
rafting 10
ran@@ 10
riot 10
roadside 10
rooftop 10
ru@@ 10
scaffold 10
scarves 10
second 10
ser@@ 10
serve 10
shape 10
shed 10
sideways 10
silhouette 10
single 10
ski@@ 10
sprayed 10
stall 10
stepping 10
stilts 10
str@@ 10
surfs 10
ta@@ 10
tan@@ 10
te@@ 10
thumb 10
tion 10
tions 10
toddlers 10
touch 10
transportation 10
trashcan 10
tribal 10
ture 10
ty 10
upward 10
valley 10
walked 10
war@@ 10
washes 10
whom 10
will 10
workout 10
workshop 10
x 10
ze 10
6 9
ab@@ 9
adjusts 9
afternoon 9
almost 9
aprons 9
atm 9
att@@ 9
attractive 9
au@@ 9
bat@@ 9
bathtub 9
begins 9
belongings 9
bends 9
beret 9
bicycling 9
bil@@ 9
blu@@ 9
boarding 9
booths 9
bouncing 9
boxer 9
br@@ 9
brass 9
breakdancing 9
brushes 9
built 9
butterfly 9
ca@@ 9
cab 9
camp 9
canadian 9
cast 9
cellphones 9
checkers 9
chewing 9
chocolate 9
chopsticks 9
circular 9
cks 9
classic 9
cleaner 9
cloud 9
clouds 9
containing 9
crates 9
crowds 9
curly-haired 9
cycling 9
decorations 9
design 9
designs 9
digital 9
diner 9
displayed 9
dive 9
dragging 9
draw 9
ducks 9
dumpster 9
e-@@ 9
east 9
elmo 9
employees 9
ets 9
even 9
farmers 9
featuring 9
fell 9
fi@@ 9
fishes 9
foliage 9
french 9
gardening 9
gazing 9
gesturing 9
grabbing 9
grabs 9
hair@@ 9
handed 9
handle 9
heavily 9
her@@ 9
high-@@ 9
highchair 9
hills 9
hind 9
horizon 9
hur@@ 9
ic@@ 9
icy 9
images 9
ins 9
interesting 9
jeep 9
jogs 9
joy 9
jumped 9
jumper 9
ke 9
kilt 9
love 9
men@@ 9
menu 9
monkey 9
motion 9
motor 9
muzzle 9
muzzled 9
news 9
ns 9
olympic 9
operates 9
painter 9
pale 9
par@@ 9
parasailing 9
pathway 9
pattern 9
peer 9
pencil 9
pet 9
pinata 9
por@@ 9
potato 9
power 9
presenting 9
protesters 9
pumpkin 9
qu@@ 9
raincoat 9
really 9
recording 9
reflection 9
rifle 9
rings 9
sad 9
sawing 9
scenic 9
score 9
section 9
sen@@ 9
service 9
shiny 9
short-haired 9
sledding 9
sli@@ 9
sn@@ 9
sniffing 9
soap 9
sorting 9
sparring 9
spo@@ 9
ss@@ 9
sta@@ 9
stacked 9
stance 9
ster 9
sters 9
sting 9
stoop 9
strapped 9
strolls 9
stump 9
tags 9
task 9
ten@@ 9
tending 9
than 9
tic@@ 9
ticket 9
tight 9
tiled 9
tin@@ 9
tired 9
tournament 9
treat 9
trench 9
tri@@ 9
tripod 9
turban 9
types 9
ue 9
unique 9
upset 9
ure 9
ve@@ 9
ver 9
vo@@ 9
ways 9
white-@@ 9
wig 9
wind 9
writes 9
- 8
11 8
abandoned 8
accident 8
acrobatic 8
ak 8
am@@ 8
amount 8
ance 8
angle 8
ans 8
aquarium 8
artists 8
assi@@ 8
ator 8
babies 8
banners 8
barefooted 8
bartender 8
batman 8
beads 8
because 8
bedroom 8
bles 8
bridesmaids 8
bundle 8
buried 8
camels 8
campfire 8
canal 8
candle 8
canoes 8
carrier 8
casino 8
cheerleading 8
cherry 8
ci@@ 8
cigar 8
cing 8
clowns 8
cluttered 8
columns 8
commercial 8
companion 8
conductor 8
crashing 8
crayons 8
create 8
cries 8
cru@@ 8
cu@@ 8
darkened 8
daytime 8
destination 8
directing 8
dis@@ 8
doesn 8
dot 8
down@@ 8
downhill 8
dra@@ 8
draped 8
drawn 8
draws 8
dri@@ 8
easel 8
egg 8
eling 8
employee 8
establishment 8
europe 8
european 8
eye@@ 8
fat 8
fer@@ 8
ff@@ 8
fields 8
figures 8
filming 8
fl@@ 8
flannel 8
fle@@ 8
fol@@ 8
followed 8
foods 8
fore@@ 8
forested 8
fountains 8
fre@@ 8
fun@@ 8
gesture 8
gh@@ 8
gown 8
grab 8
grand 8
grand@@ 8
had 8
halloween 8
hammering 8
hammock 8
har@@ 8
hardwood 8
harmonica 8
hawaiian 8
homemade 8
human 8
hydrant 8
im@@ 8
india 8
industrial 8
jockeys 8
judges 8
ke@@ 8
ker 8
kisses 8
kno@@ 8
labeled 8
laboratory 8
laden 8
lanterns 8
late 8
league 8
lers 8
licking 8
lips 8
lively 8
ll@@ 8
loaded 8
looked 8
lou@@ 8
ma@@ 8
masks 8
med@@ 8
medium 8
mess 8
mid-@@ 8
midst 8
mil@@ 8
mix 8
mixer 8
monopoly 8
mu@@ 8
much 8
murky 8
muscular 8
nail 8
nails 8
napping 8
navigates 8
notebook 8
notes 8
ob@@ 8
oning 8
ously 8
package 8
packed 8
pan@@ 8
pay 8
peers 8
photographers 8
plain 8
ple@@ 8
pocket 8
pours 8
product 8
projector 8
protect 8
punch 8
purses 8
redhead 8
religious 8
rolled 8
rug 8
sage 8
sailboat 8
say 8
scrubs 8
series 8
shadow 8
shaggy 8
shes 8
signing 8
skies 8
skills 8
skinny 8
sme@@ 8
somewhere 8
speaker 8
speci@@ 8
speeding 8
spins 8
splashed 8
spot 8
spotlight 8
sprays 8
spring 8
squeezing 8
staff 8
state 8
sto@@ 8
stretches 8
stringed 8
strolling 8
stuck 8
stuff 8
sty@@ 8
surgical 8
sw@@ 8
swe@@ 8
synchronized 8
tackled 8
tal 8
te 8
teammates 8
tes 8
times 8
too 8
toothbrush 8
tors 8
tour 8
trains 8
transit 8
travel 8
tug-of-war 8
tying 8
underground 8
unhappy 8
unusual 8
variety 8
vending 8
victory 8
vintage 8
waist 8
waiter 8
walmart 8
war 8
warehouse 8
washer 8
waterskiing 8
wheeled 8
when 8
win 8
wing 8
-colored 7
-up 7
8 7
? 7
able 7
accompanied 7
acting 7
activities 7
adorned 7
advertisements 7
aid 7
ail 7
amid 7
ang@@ 7
apples 7
aps 7
aqua 7
aring 7
arrow 7
ately 7
await 7
ba@@ 7
backseat 7
bananas 7
barely 7
barrels 7
bas@@ 7
battle 7
beating 7
beers 7
begin 7
bend 7
bit 7
black@@ 7
bling 7
blower 7
blurred 7
bon@@ 7
bongo 7
bounds 7
bows 7
bra 7
bre@@ 7
british 7
broad 7
buffet 7
bull@@ 7
bush 7
call 7
cam@@ 7
cameraman 7
cannon 7
casting 7
cat@@ 7
cave 7
ce@@ 7
chan@@ 7
character 7
characters 7
chased 7
che@@ 7
cheerleader 7
chin 7
cigarettes 7
ck@@ 7
cl@@ 7
cli@@ 7
collie 7
colorfully 7
comfor@@ 7
completing 7
complex 7
conducting 7
confetti 7
cons@@ 7
conte@@ 7
contest 7
cotton 7
crawls 7
crops 7
crosscountry 7
daily 7
de 7
defender 7
deli 7
deli@@ 7
demonstration 7
des 7
designed 7
desks 7
dinosaur 7
disc 7
discuss 7
divers 7
doctors 7
dolls 7
domin@@ 7
dotted 7
dryer 7
drying 7
dyed 7
earth 7
elder 7
ele@@ 7
elementary 7
entertain 7
environment 7
examine 7
exercising 7
exiting 7
facial 7
fashioned 7
feather 7
fedora 7
fellow 7
fetch 7
fill 7
find 7
fireworks 7
flock 7
fog 7
foggy 7
fork 7
fr@@ 7
framed 7
frying 7
fuzzy 7
ge@@ 7
ger@@ 7
ght@@ 7
go@@ 7
greyhounds 7
gri@@ 7
grinds 7
guide 7
hal@@ 7
harbor 7
hel@@ 7
hip@@ 7
hispanic 7
hoo@@ 7
hotdogs 7
husband 7
illuminated 7
ingredients 7
instruc@@ 7
is@@ 7
jenga 7
laid 7
lands 7
lar 7
le-@@ 7
leopard 7
level 7
lin@@ 7
lion 7
lling 7
logo 7
lush 7
main 7
marble 7
marked 7
marker 7
mascot 7
may 7
maybe 7
mcdonald 7
meadow 7
measuring 7
medieval 7
mic 7
mitt 7
monitors 7
monk 7
mountainous 7
mounted 7
mouths 7
mowing 7
named 7
necklaces 7
newlywed 7
nine 7
nude 7
nun 7
oil 7
ordering 7
own 7
p-@@ 7
pans 7
parent 7
patrons 7
peaks 7
pic@@ 7
picket 7
pie 7
pigeon 7
pin@@ 7
pirate 7
pl@@ 7
pointed 7
policemen 7
pony 7
poodle 7
pops 7
posed 7
prepared 7
presents 7
punching 7
puppet 7
purchase 7
py 7
pyramid 7
quiet 7
radio 7
rafts 7
railings 7
raining 7
reception 7
resort 7
return 7
rock@@ 7
rollerskates 7
rolls 7
rugs 7
rustic 7
ry 7
scientist 7
scr@@ 7
sculptures 7
seafood 7
seating 7
semi-@@ 7
separate 7
shawl 7
shower 7
shu@@ 7
sidelines 7
silhouetted 7
sion 7
skydiving 7
skyline 7
slacks 7
sleeves 7
snacks 7
snowboards 7
social 7
sold 7
speeds 7
squats 7
sses 7
starring 7
stores 7
storm 7
striking 7
strings 7
stripe 7
su@@ 7
sunbathing 7
supermarket 7
support 7
surfers 7
tail 7
tarp 7
temple 7
ter@@ 7
ters 7
thick 7
though 7
tiger 7
tive 7
topless 7
tor@@ 7
tracksuit 7
travels 7
treadmill 7
trophy 7
trotting 7
tubes 7
turkey 7
tutu 7
ty@@ 7
typing 7
u 7
ultimate 7
upwards 7
usa 7
va@@ 7
vacuum 7
vacuuming 7
ve 7
ver@@ 7
vibrant 7
visor 7
warming 7
wash 7
watermelons 7
wei@@ 7
were 7
wh@@ 7
wilderness 7
woodland 7
workman 7
wrestlers 7
written 7
x@@ 7
xylophone 7
year 7
zone 7
-looking 6
-style 6
10 6
5@@ 6
aboard 6
acked 6
actors 6
adven@@ 6
affe@@ 6
aiming 6
amp@@ 6
ancient 6
anvil 6
any 6
armed 6
arrangement 6
asking 6
assembled 6
assisting 6
atten@@ 6
award 6
axe 6
back@@ 6
badge 6
badminton 6
band@@ 6
barriers 6
bble 6
beams 6
bell 6
belly 6
ber@@ 6
bib 6
bikinis 6
bla@@ 6
ble@@ 6
blocking 6
bloo@@ 6
boarder 6
bodysuit 6
bones 6
boogie 6
bottoms 6
bow@@ 6
bowtie 6
boxers 6
bra@@ 6
briefcase 6
bronco 6
brooms 6
bulldozer 6
bunny 6
butcher 6
cable 6
cal 6
canyon 6
cardigan 6
cash 6
cathedral 6
cats 6
ceremonial 6
checked 6
checkout 6
circus 6
citizens 6
clap 6
climbers 6
clothed 6
clu@@ 6
clutching 6
coast 6
column 6
completely 6
congregate 6
connected 6
constructed 6
convenience 6
coun@@ 6
crafting 6
crash 6
crate 6
creates 6
crest 6
crown 6
ct 6
cul@@ 6
damaged 6
dec@@ 6
decor@@ 6
deer 6
der@@ 6
dering 6
deserted 6
dessert 6
devices 6
dge 6
dots 6
dou@@ 6
dr@@ 6
dragon 6
dro@@ 6
dropping 6
drum@@ 6
dump 6
ear@@ 6
ei@@ 6
elaborate 6
elevated 6
em@@ 6
ery 6
evil 6
excitedly 6
expanse 6
expression 6
face-@@ 6
favorite 6
feathered 6
features 6
fil@@ 6
fin@@ 6
finished 6
fit 6
fixes 6
flames 6
flat 6
fli@@ 6
flo@@ 6
floors 6
flowery 6
focus 6
follow 6
fri@@ 6
gap 6
ged 6
ges 6
glacier 6
glo@@ 6
gloved 6
goatee 6
gowns 6
grasping 6
grills 6
grin@@ 6
gues 6
gui@@ 6
handbag 6
handheld 6
harvesting 6
hearts 6
heavyset 6
hook 6
hour 6
hu@@ 6
hun@@ 6
hunched 6
ics 6
identical 6
ight 6
ines 6
information 6
ion 6
iti@@ 6
jewish 6
jumpsuits 6
ka@@ 6
kes 6
keys 6
kicked 6
kil@@ 6
kiosk 6
kn@@ 6
knitting 6
lanes 6
lea@@ 6
legos 6
length 6
licks 6
lie 6
lime 6
lipstick 6
liquor 6
lovely 6
lower 6
ly-@@ 6
main@@ 6
mates 6
mats 6
mature 6
merry-go-round 6
miami 6
microscopes 6
miniature 6
missing 6
mittens 6
mou@@ 6
mountaintop 6
mouse 6
mule 6
muslim 6
nearly 6
nightclub 6
noses 6
nurse 6
off-@@ 6
off-camera 6
olive 6
one-@@ 6
operated 6
os 6
overlook 6
pad 6
pain 6
pant 6
parallel 6
ped@@ 6
pedd@@ 6
personnel 6
piles 6
pillar 6
pipes 6
pitching 6
plank 6
political 6
popcorn 6
portable 6
pped 6
pper 6
probably 6
professor 6
progress 6
propped 6
pur@@ 6
pushed 6
quad 6
questi@@ 6
rack 6
rag 6
rails 6
raise 6
raking 6
ravine 6
razor 6
red-@@ 6
regi@@ 6
relaxes 6
relay 6
releas@@ 6
renaissance 6
ribbons 6
rimmed 6
riverbank 6
roll 6
rubs 6
rush 6
rusty 6
sample 6
san@@ 6
saris 6
sau@@ 6
scaling 6
scattered 6
scissors 6
scooping 6
scre@@ 6
sea@@ 6
seagulls 6
seas@@ 6
seattle 6
sel@@ 6
semi 6
senior 6
shake 6
shingles 6
sho@@ 6
shorter 6
shouting 6
skateboarders 6
ske@@ 6
skull 6
sleep 6
sleeve 6
slopes 6
sm@@ 6
smo@@ 6
snowball 6
soars 6
socializing 6
somebody 6
sooners 6
soup 6
spar@@ 6
spatula 6
special 6
spen@@ 6
spi@@ 6
spots 6
sprinklers 6
squad 6
ssing 6
ssion 6
stair 6
stan@@ 6
stars 6
stirring 6
stretched 6
stri@@ 6
stride 6
strike 6
strollers 6
stunts 6
sub@@ 6
sundress 6
sunshine 6
super@@ 6
superman 6
swan 6
swords 6
system 6
tablecloth 6
talent 6
teddy 6
terrier 6
test 6
texting 6
thing 6
those 6
tips 6
toe 6
tomatoes 6
tow 6
trans@@ 6
tree-lined 6
two-@@ 6
university 6
unloading 6
upright 6
ved 6
walkers 6
wan@@ 6
watering 6
waterside 6
waterskier 6
weapon 6
weight 6
wel@@ 6
well-dressed 6
wheelchairs 6
whistle 6
wind@@ 6
wineglasses 6
within 6
words 6
woven 6
wr@@ 6
yed 6
ys 6
zoo 6
-covered 5
7 5
9 5
ach@@ 5
ack 5
ade 5
af@@ 5
ai@@ 5
ails 5
americans 5
amish 5
ams 5
angels 5
angry 5
ani@@ 5
antique 5
antly 5
ap@@ 5
aping 5
app@@ 5
apparatus 5
appearing 5
applies 5
archway 5
armor 5
arrive 5
artistic 5
ary 5
ascending 5
asphalt 5
assistant 5
ath@@ 5
ats 5
attendant 5
attentively 5
ature 5
available 5
ax 5
backhoe 5
backlit 5
backstroke 5
backward 5
baked 5
bakery 5
bal@@ 5
balanced 5
ban@@ 5
banana 5
barbecuing 5
barking 5
barren 5
baseman 5
baton 5
beginning 5
besides 5
bin@@ 5
bing 5
bir@@ 5
bites 5
blin@@ 5
blindfolded 5
blocked 5
blue-@@ 5
blurry 5
bly 5
bookshelf 5
boss 5
bounding 5
braided 5
break@@ 5
breaks 5
breath 5
bri@@ 5
brow 5
bru@@ 5
bundled 5
bushy 5
businessman 5
button-up 5
campers 5
campsite 5
canopy 5
cargo 5
caricature 5
carousel 5
carried 5
cartwheel 5
carve 5
carved 5
cattle 5
cen@@ 5
chained 5
chains 5
challenge 5
champagne 5
char@@ 5
chat 5
chee@@ 5
cheeks 5
chil@@ 5
ching 5
chips 5
chunk 5
cir@@ 5
cityscape 5
cking 5
clarinet 5
claus 5
cle@@ 5
clearing 5
clock 5
clothesline 5
cloths 5
cockpit 5
cola 5
collec@@ 5
collecting 5
combat 5
comfortable 5
comforting 5
community 5
competitive 5
competitors 5
completed 5
conce@@ 5
concentrates 5
conditions 5
confused 5
contain@@ 5
contents 5
contin@@ 5
convention 5
cooked 5
cookies 5
cooler 5
coolers 5
cowgirl 5
cows 5
cradles 5
crawling 5
crazy 5
cri@@ 5
cro@@ 5
crowns 5
curve 5
curved 5
dan@@ 5
dar@@ 5
daylight 5
decorating 5
del@@ 5
den@@ 5
descending 5
designer 5
dig 5
digs 5
dilapidated 5
din@@ 5
directs 5
disney 5
dly 5
dom 5
dominoes 5
donkeys 5
dribbles 5
drilling 5
drivers 5
dropped 5
dunking 5
eagerly 5
earrings 5
ec@@ 5
elephants 5
embrace 5
emerges 5
ens 5
equestrian 5
er-@@ 5
escape 5
exam@@ 5
excitement 5
exhibition 5
exploring 5
expressions 5
eyeglasses 5
fairy 5
fan@@ 5
far@@ 5
farm@@ 5
feathers 5
ff 5
fic@@ 5
fills 5
film 5
fireplace 5
fish@@ 5
fishermen 5
flaming 5
floaties 5
flowing 5
flu@@ 5
foam 5
foo@@ 5
foot@@ 5
ford 5
formed 5
forming 5
fort 5
free@@ 5
frog 5
fs 5
fu@@ 5
gent 5
gham 5
girlfriend 5
given 5
glass@@ 5
glider 5
gliding 5
go-cart 5
goats 5
graffitied 5
greenery 5
gro@@ 5
grown 5
gum 5
h 5
haired 5
hairstyle 5
hand-@@ 5
handles 5
handling 5
harp 5
headset 5
hear 5
herding 5
hero 5
hin@@ 5
historic 5
hitch@@ 5
holes 5
hooping 5
horns 5
huddle 5
huddled 5
husky 5
ian 5
ic 5
ie 5
inc@@ 5
includes 5
ingly 5
ining 5
inspec@@ 5
inspect 5
installing 5
instructing 5
interact 5
interviewed 5
ipod 5
ir@@ 5
ish 5
island 5
ist 5
ities 5
jack 5
japan 5
javelin 5
jog 5
k-@@ 5
ki 5
kick@@ 5
kimonos 5
kites 5
knee-high 5
la 5
lam@@ 5
lan@@ 5
lantern 5
lasso 5
last 5
latin 5
lean 5
leaned 5
leashes 5
least 5
legged 5
lets 5
lic@@ 5
ligh@@ 5
lingerie 5
list 5
loo@@ 5
lost 5
lowered 5
magnifying 5
major 5
makeshift 5
mannequin 5
marches 5
mark 5
marsh@@ 5
mas 5
masked 5
massive 5
mate 5
mattress 5
mcdonalds 5
medi@@ 5
memorial 5
merchant 5
message 5
metro 5
mic@@ 5
mid@@ 5
mini-@@ 5
minivan 5
mon@@ 5
moo@@ 5
mops 5
mothers 5
moti@@ 5
motorbikes 5
mp@@ 5
mul@@ 5
multicolor 5
mustard 5
nicely 5
nike 5
nor@@ 5
oar 5
obama 5
observers 5
occupied 5
offering 5
onal 5
oned 5
opened 5
operation 5
opponents 5
ori@@ 5
pacifier 5
padded 5
parachutes 5
parachuting 5
parts 5
partying 5
passed 5
passerby 5
past@@ 5
pauses 5
peach 5
peacock 5
peak 5
pedal 5
pedestrian 5
pen@@ 5
perched 5
perhaps 5
persons 5
petals 5
photographing 5
physi@@ 5
pi@@ 5
pinned 5
pinstriped 5
plush 5
poking 5
poodles 5
port 5
positioned 5
posters 5
posts 5
poun@@ 5
pride 5
priest 5
pro 5
pub 5
punk 5
rake 5
reclines 5
recreational 5
register 5
ren@@ 5
returns 5
ries 5
roadwork 5
robot 5
rollerskaters 5
rounding 5
rowboat 5
rs 5
rubble 5
ruins 5
run-down 5
sacks 5
sail 5
sailboats 5
sailor 5
sal@@ 5
sam@@ 5
sands 5
saying 5
scales 5
scantily 5
scar@@ 5
sco@@ 5
scout 5
scri@@ 5
searching 5
season 5
see@@ 5
seesaw 5
sel 5
selec@@ 5
served 5
shack 5
shady 5
shar@@ 5
sharp 5
she@@ 5
sheer 5
sheets 5
shelves 5
shin@@ 5
shines 5
shoeshine 5
shoo@@ 5
singers 5
sister 5
sk@@ 5
sky-@@ 5
sla@@ 5
slee@@ 5
slicing 5
smooth 5
snap 5
snaps 5
snowboarders 5
snowcapped 5
snowman 5
soa@@ 5
soft 5
sound 5
spike 5
splash 5
split 5
spongebob 5
sponsored 5
ssed 5
stacks 5
star@@ 5
starts 5
states 5
steers 5
stered 5
storefronts 5
strap 5
stretch 5
stroke 5
struggles 5
struggling 5
stry 5
stylish 5
suburban 5
suitcases 5
suppor@@ 5
surgeons 5
sweaters 5
sweatshirts 5
sweatsuit 5
symbol 5
tant 5
tar@@ 5
tch 5
terminal 5
tex@@ 5
text 5
the@@ 5
theme 5
themed 5
ther 5
thor@@ 5
tiara 5
tic 5
tle 5
toilet 5
tomato 5
ton 5
tongs 5
torches 5
tossed 5
towels 5
tra@@ 5
trays 5
tribe 5
trimming 5
tru@@ 5
tted 5
tugging 5
tumbling 5
tunic 5
tural 5
turing 5
tuxedo 5
ult 5
ums 5
unfinished 5
ung 5
unknown 5
ups 5
utility 5
varying 5
vegetation 5
vely 5
vertical 5
vic@@ 5
views 5
vision 5
vocalist 5
waitress 5
wake@@ 5
wakeboard 5
want 5
ward 5
wards 5
ware 5
watercraft 5
watermelon 5
weapons 5
welcome 5
wers 5
white-haired 5
whole 5
win@@ 5
windbreaker 5
winding 5
wiping 5
won@@ 5
wor@@ 5
workmen 5
wri@@ 5
wrist@@ 5
yelling 5
your 5
zer 5
zing 5
-filled 4
0s 4
ably 4
accepting 4
ace 4
ached 4
acking 4
acro@@ 4
actively 4
adorable 4
aerial 4
africa 4
aircraft 4
aired 4
alcohol 4
alike 4
anim@@ 4
ank@@ 4
ant 4
antic@@ 4
apparel 4
appre@@ 4
appro@@ 4
ara@@ 4
arabic 4
architec@@ 4
areas 4
arid 4
ars 4
artificial 4
attraction 4
aud@@ 4
automobile 4
av@@ 4
avoid 4
balconies 4
ballerinas 4
banging 4
basement 4
basketballs 4
bathrobe 4
bay 4
beards 4
bears 4
beat 4
bee 4
begging 4
best 4
beyond 4
bl@@ 4
black-@@ 4
blade 4
blue-green 4
boo@@ 4
bookbag 4
bookstore 4
boston 4
boulders 4
bowler 4
bracelet 4
brai@@ 4
bran@@ 4
breaking 4
bridal 4
brimmed 4
bringing 4
brochure 4
bronze 4
bud@@ 4
buggy 4
build 4
bungee 4
buoy 4
burgers 4
buses 4
bush@@ 4
button-down 4
cabin 4
cables 4
cafeteria 4
calling 4
came 4
camper 4
cano@@ 4
carpeted 4
cartoon 4
cas@@ 4
casts 4
cause 4
caution 4
celebrates 4
cemetery 4
charcoal 4
chews 4
chickens 4
chinatown 4
chip 4
chiseling 4
chubby 4
cinder 4
circu@@ 4
civil 4
cleaned 4
closer 4
coast@@ 4
coca 4
coca-cola 4
coconuts 4
coke 4
collection 4
colli@@ 4
comb 4
communic@@ 4
communicating 4
competes 4
concentr@@ 4
consid@@ 4
conso@@ 4
constructing 4
contemplating 4
controls 4
convertible 4
cookie 4
cords 4
county 4
coveralls 4
cra@@ 4
crab 4
craftsman 4
cram@@ 4
crayon 4
created 4
crib 4
cruise 4
crutches 4
cs 4
cubicle 4
cupcake 4
cupcakes 4
curious 4
currently 4
custo@@ 4
da 4
da@@ 4
daughters 4
dding 4
decide 4
deere 4
defen@@ 4
defenders 4
defensive 4
delicious 4
demonstrating 4
descend 4
despite 4
dges 4
dies 4
diners 4
directly 4
dirt-@@ 4
disk 4
dled 4
dles 4
dol@@ 4
dolly 4
dolphin 4
don 4
double 4
dozens 4
drag 4
drainage 4
dramatically 4
dribbling 4
driven 4
drop 4
drops 4
dunes 4
dunk 4
early 4
earmuffs 4
eatery 4
electronics 4
else 4
em 4
emb@@ 4
emerging 4
enforcement 4
eng@@ 4
engage 4
enjo@@ 4
entertainer 4
enthusiastically 4
era 4
except 4
exciting 4
exits 4
experi@@ 4
exposed 4
extended 4
extremely 4
f-@@ 4
fac@@ 4
fal@@ 4
fashionable 4
fati@@ 4
fed 4
fetching 4
fic 4
fighter 4
file 4
fine 4
firetrucks 4
firing 4
fitness 4
flatbed 4
flea 4
floored 4
floppy 4
flour 4
fluorescent 4
footbridge 4
force 4
forces 4
foundation 4
four@@ 4
fourth 4
frames 4
freshly 4
frustrated 4
galloping 4
gated 4
gay 4
ggle 4
gie 4
glan@@ 4
gle 4
gling 4
go-@@ 4
goers 4
gold-@@ 4
golfer 4
graduation 4
graphic 4
gras@@ 4
green@@ 4
greeting 4
grins 4
guarding 4
gued 4
guitarists 4
gymnastic 4
gyp@@ 4
ha@@ 4
halter 4
ham@@ 4
hau@@ 4
hauling 4
hawk 4
headbands 4
headscarves 4
helmeted 4
helped 4
henna 4
hidden 4
high-fives 4
hikes 4
hilly 4
hips 4
holiday 4
hopscotch 4
hung 4
ia 4
ice-@@ 4
id@@ 4
ig@@ 4
im 4
impressive 4
incoming 4
indi@@ 4
iner 4
inflated 4
inline 4
inner 4
instructor 4
intense 4
intri@@ 4
ire 4
ists 4
ite 4
jar 4
jazz 4
je@@ 4
jewelery 4
joggers 4
ka 4
kayaker 4
kayakers 4
keeping 4
ken 4
ken@@ 4
key 4
ki@@ 4
kiddie 4
kilts 4
kitchenaid 4
kitten 4
know 4
known 4
lace 4
ladders 4
land@@ 4
landed 4
lap@@ 4
lar@@ 4
las 4
law 4
layers 4
leafless 4
lear@@ 4
lei 4
lemons 4
less 4
letters 4
lev@@ 4
liberty 4
lic 4
lid 4
lifeguards 4
likely 4
lip 4
litter 4
ll 4
lock 4
loco@@ 4
lonely 4
long-@@ 4
long@@ 4
loose 4
lowing 4
mac 4
mailbox 4
maneuver 4
markings 4
marks 4
mascara 4
mb@@ 4
meas@@ 4
mechanic 4
mechanical 4
media 4
megaphone 4
mermaid 4
mers 4
mesh 4
messenger 4
metal@@ 4
metallic 4
mickey 4
milk 4
mind 4
mobil@@ 4
mon 4
monster 4
mor@@ 4
motor-@@ 4
motorboat 4
moun@@ 4
mountainside 4
mr@@ 4
mustached 4
muzzles 4
nee@@ 4
new@@ 4
noodles 4
note 4
occurring 4
octopus 4
oklahoma 4
old-fashioned 4
once 4
ong 4
open-air 4
oper@@ 4
orders 4
organ 4
organi@@ 4
organizing 4
ound 4
over-sized 4
overcoat 4
overhang 4
oversized 4
overturned 4
owner 4
owners 4
oxen 4
pack@@ 4
packing 4
padding 4
paintbrush 4
paintings 4
pancake 4
panel 4
paras@@ 4
parasol 4
participants 4
participates 4
passionately 4
pastries 4
patrol 4
paws 4
pee 4
peeks 4
peeling 4
photography 4
picker 4
pickup 4
pictured 4
piercing 4
pies 4
pig 4
piggyback 4
piled 4
pillars 4
pine@@ 4
ping-pong 4
pirates 4
pitchers 4
pla@@ 4
plan@@ 4
play@@ 4
playpen 4
plowing 4
plucking 4
poised 4
pokes 4
polish 4
pop 4
possession 4
postal 4
potted 4
poverty 4
pow@@ 4
powder 4
powered 4
prayer 4
pregnant 4
preparation 4
presen@@ 4
pressure 4
pretending 4
princess 4
prints 4
prizes 4
professionals 4
projected 4
promoting 4
propane 4
puffy 4
pum@@ 4
pun@@ 4
purchasing 4
puzzle 4
q 4
quaint 4
quick 4
rabbit 4
rabbits 4
rac@@ 4
railway 4
ramps 4
re 4
readying 4
real 4
rear 4
receive 4
receives 4
reddish 4
ref 4
reflec@@ 4
remo@@ 4
remote 4
removing 4
repe@@ 4
repor@@ 4
resid@@ 4
respec@@ 4
retail 4
retrie@@ 4
retrieving 4
returning 4
rid@@ 4
ridding 4
rin@@ 4
ris 4
roadway 4
rocking 4
rode 4
rollerblader 4
roping 4
roses 4
rounds 4
runway 4
s-@@ 4
s. 4
saddle 4
safe 4
salad 4
san 4
sandal 4
sashes 4
sausages 4
scale 4
scared 4
schi@@ 4
sco 4
scoop 4
scottish 4
scrap 4
scratching 4
scu@@ 4
sculpting 4
sculptor 4
seagull 4
seashore 4
seaweed 4
sec@@ 4
seeds 4
sees 4
selecting 4
seniors 4
separ@@ 4
ser 4
shapes 4
shave 4
sheepdog 4
shields 4
shing 4
shit 4
shoe@@ 4
shoots 4
short-@@ 4
siding 4
sight 4
similarly 4
sip 4
siting 4
skimpy 4
sky@@ 4
slab 4
slam 4
sle@@ 4
slender 4
slices 4
slin@@ 4
slip 4
sloping 4
slot 4
slowly 4
smoothing 4
snake 4
sniffs 4
snorkel 4
snowing 4
soil 4
soldering 4
solitary 4
solo 4
someones 4
sons 4
sorts 4
sou@@ 4
south 4
spandex 4
speakers 4
spear 4
spectate 4
speedo 4
spiked 4
spikes 4
spin 4
spor@@ 4
sprinting 4
squares 4
squir@@ 4
st. 4
stacking 4
stairwell 4
stalks 4
starbucks 4
stat@@ 4
stationary 4
statues 4
stay 4
steaks 4
steam 4
steer 4
sten@@ 4
stirs 4
stocking 4
stockings 4
stools 4
storage 4
straining 4
straps 4
strawberry 4
street-@@ 4
streetlight 4
strikes 4
strip 4
stro@@ 4
structures 4
studies 4
stum@@ 4
submerged 4
substance 4
such 4
sucking 4
sumo 4
sun@@ 4
sunbathers 4
sunhat 4
sunrise 4
supervi@@ 4
sur@@ 4
surround 4
surroundings 4
suv 4
swampy 4
sweaty 4
swimwear 4
sy 4
tackles 4
tagged 4
tails 4
tain 4
taller 4
tap 4
taste 4
tasting 4
tattered 4
taught 4
taxis 4
technique 4
technology 4
temporary 4
ten 4
terrace 4
tery 4
texts 4
think 4
thinking 4
tho@@ 4
thou@@ 4
thought 4
thy 4
ti 4
tickets 4
tightly 4
tightrope 4
tiles 4
tim 4
tip 4
tively 4
toast 4
top-@@ 4
topic 4
tor 4
torn 4
tosses 4
tou@@ 4
trained 4
tram 4
trav@@ 4
travel@@ 4
trims 4
tro@@ 4
trombone 4
troo@@ 4
troops 4
tuning 4
turtle 4
twelve 4
twirling 4
twister 4
typical 4
ude 4
ukulele 4
ul@@ 4
unicef 4
unidentified 4
union 4
unpacking 4
unpaved 4
unseen 4
ured 4
ures 4
uring 4
used 4
vacation 4
vast 4
vegas 4
vel@@ 4
via 4
videotaping 4
viewer 4
villagers 4
ving 4
viol@@ 4
violinist 4
vol@@ 4
volkswagen 4
wades 4
wal@@ 4
waring 4
warning 4
washed 4
washington 4
weathered 4
weave 4
weeds 4
weighing 4
weird 4
wer 4
western 4
wetsuits 4
wheeler 4
whi@@ 4
whispering 4
wicker 4
wigs 4
winning 4
wipes 4
wool 4
word 4
workbench 4
wrapping 4
wraps 4
write 4
xed 4
yamaha 4
yellow-@@ 4
ying 4
yo-yo 4
youngsters 4
youths 4
z 4
zebra 4
zed 4
zes 4
zoo@@ 4
-b@@ 3
-down 3
-shaped 3
-skinned 3
0 3
12 3
24 3
30 3
3@@ 3
3rd 3
4@@ 3
50 3
9@@ 3
: 3
a-@@ 3
abil@@ 3
abs 3
accompanies 3
aches 3
aching 3
acts 3
adding 3
addresses 3
addressing 3
ader 3
adjust 3
adm@@ 3
admires 3
ado@@ 3
adolescent 3
adul@@ 3
advantage 3
aff@@ 3
again 3
age@@ 3
agility 3
ailing 3
aim 3
air-@@ 3
airline 3
ali@@ 3
alig@@ 3
aling 3
alized 3
alli@@ 3
allow 3
aluminum 3
amazing 3
amble 3
ambulance 3
amused 3
ank 3
answers 3
ant@@ 3
anti@@ 3
appla@@ 3
applied 3
approach 3
approximately 3
aquatic 3
arch@@ 3
archaeolo@@ 3
arguing 3
arranged 3
arrival 3
ascen@@ 3
ash 3
ash@@ 3
ashore 3
assembly 3
assortment 3
ast 3
astronaut 3
ate@@ 3
ati@@ 3
atic 3
ators 3
attaches 3
attend 3
attired 3
audio 3
auto@@ 3
aver 3
aver@@ 3
aves 3
awaits 3
awe 3
awning 3
awnings 3
ay 3
backhand 3
backp@@ 3
bag@@ 3
baggage 3
bagpipe 3
baker 3
banquet 3
barbie 3
bark 3
barricades 3
bath@@ 3
bathed 3
batons 3
bats 3
battling 3
bb@@ 3
bead 3
beagle 3
bean@@ 3
beans 3
bearer 3
beats 3
beautifully 3
berlin 3
berry 3
better 3
bicyc@@ 3
bins 3
blacktop 3
ble-@@ 3
blonds 3
blossoming 3
blow-up 3
blown 3
bmw 3
boa 3
boating 3
body@@ 3
bor@@ 3
border 3
bordered 3
bordering 3
boun@@ 3
bounce 3
bouncer 3
bounces 3
bouncy 3
bowed 3
braces 3
brazil 3
breakfast 3
breast@@ 3
brick-paved 3
briefs 3
brin@@ 3
brindle 3
briskly 3
bro@@ 3
broad@@ 3
browni@@ 3
bucks 3
budd@@ 3
bug 3
bul@@ 3
bulls 3
bumper 3
burger 3
bus@@ 3
but@@ 3
butchering 3
butt 3
butt@@ 3
butter 3
ca 3
cabinet 3
cac@@ 3
cad@@ 3
cages 3
cakes 3
california 3
cally 3
camcorder 3
cameramen 3
campaign 3
canes 3
canister 3
canned 3
capes 3
captain 3
captured 3
captures 3
careful 3
carpen@@ 3
cases 3
celebr@@ 3
centr@@ 3
cer 3
ceramic 3
cereal 3
certi@@ 3
change 3
charging 3
chart 3
cheer@@ 3
cheers 3
chemi@@ 3
chev@@ 3
chew 3
chie@@ 3
chu@@ 3
chy 3
clams 3
clas@@ 3
claw 3
cleats 3
clerk 3
cles 3
climb@@ 3
clip@@ 3
cobbled 3
collected 3
collide 3
colon@@ 3
colum@@ 3
commuters 3
comple@@ 3
condu@@ 3
coney 3
congregated 3
congregating 3
consum@@ 3
cont@@ 3
contains 3
content 3
contor@@ 3
conven@@ 3
conver@@ 3
coo@@ 3
cord 3
corn@@ 3
corral 3
corridor 3
costumed 3
cou@@ 3
counters 3
countertop 3
cour@@ 3
coverings 3
cracks 3
crashed 3
crashes 3
cream@@ 3
creative 3
cree@@ 3
crocodile 3
crocs 3
cross@@ 3
crotch 3
crouch 3
crow@@ 3
cry 3
crystal 3
cted 3
ctic 3
cts 3
culture 3
curling 3
curtain 3
cushion 3
cut-out 3
cuto@@ 3
cutout 3
cy@@ 3
cyc@@ 3
cycle 3
cycles 3
d-up 3
dachshun@@ 3
dalm@@ 3
darkly 3
darkness 3
darts 3
ddles 3
dealer 3
decals 3
decker 3
defends 3
demo@@ 3
demonstr@@ 3
demonstrates 3
den 3
dentist 3
depicting 3
dered 3
descends 3
descri@@ 3
desolate 3
deter@@ 3
di 3
die 3
digger 3
dimly-lit 3
dir@@ 3
directed 3
director 3
discu@@ 3
dishwasher 3
distorted 3
distri@@ 3
ditch 3
diverse 3
dle 3
docu@@ 3
dojo 3
donuts 3
doo 3
door@@ 3
dorm 3
dozen 3
dreads 3
drenched 3
dresser 3
dressing 3
dried 3
dries 3
drift 3
drunk 3
du 3
ducking 3
duffel 3
dugout 3
dumps 3
dunks 3
dustpan 3
dwelling 3
dy@@ 3
eag@@ 3
earbuds 3
earring 3
easter 3
effort 3
ek 3
elbow 3
elding 3
electrical 3
electrician 3
eless 3
elevator 3
emp@@ 3
enclosed 3
enclosure 3
end@@ 3
ended 3
ends 3
engages 3
enter 3
enters 3
entertained 3
entertaining 3
entertainment 3
entertains 3
enthusiasm 3
enthusiast 3
enthusiastic 3
eous 3
equipped 3
es@@ 3
ethnic@@ 3
euro 3
every 3
everyone 3
everywhere 3
excav@@ 3
execu@@ 3
exit 3
exo@@ 3
expensive 3
explorer 3
explores 3
explosion 3
exposing 3
expre@@ 3
extends 3
extreme 3
eze 3
facade 3
faced 3
fair@@ 3
families 3
featured 3
feed 3
feeds 3
fel@@ 3
fen@@ 3
fenced-in 3
fences 3
ferry 3
festiv@@ 3
festive 3
fet@@ 3
ffles 3
fiel@@ 3
fier@@ 3
figur@@ 3
films 3
final 3
fingernail 3
fingertips 3
fist 3
fists 3
fit@@ 3
flambo@@ 3
flash@@ 3
flashlight 3
fleece 3
fliers 3
flights 3
flin@@ 3
flood 3
flooded 3
flotation 3
fo@@ 3
focuses 3
fold-up 3
footprints 3
forklift 3
formations 3
former 3
forms 3
forrest 3
fortune 3
fou@@ 3
four-wheeler 3
france 3
freeway 3
friendly 3
frin@@ 3
frosting 3
fts 3
fur@@ 3
gam@@ 3
gardens 3
garment 3
gates 3
geese 3
geisha 3
geo@@ 3
geometric 3
gger 3
gh 3
ght 3
ghts 3
gi 3
gifts 3
gin 3
gin@@ 3
ginger@@ 3
gl@@ 3
gled 3
gli@@ 3
glit@@ 3
golf@@ 3
goof@@ 3
gorgeous 3
government 3
gra@@ 3
graduate 3
graffit@@ 3
graffiti@@ 3
granddaughter 3
grandmother 3
graph@@ 3
gray@@ 3
graying 3
gre@@ 3
green-@@ 3
greet 3
grid 3
grimacing 3
gripping 3
grou@@ 3
grounds 3
grouped 3
growing 3
guest 3
gy 3
gy@@ 3
gyro 3
hairnet 3
hamburger 3
hamburgers 3
hammers 3
han@@ 3
handful 3
handicapped 3
handkerchie@@ 3
handlebars 3
handmade 3
happ@@ 3
happening 3
hard-@@ 3
hate 3
hatted 3
haw@@ 3
hazard 3
headgear 3
healthcare 3
heartbeat 3
hedge 3
heeled 3
hello 3
hi@@ 3
highly 3
histori@@ 3
hol@@ 3
holidays 3
holing 3
hollister 3
home@@ 3
honor 3
hor@@ 3
horizon@@ 3
horse-drawn 3
horse@@ 3
hoses 3
hou@@ 3
house@@ 3
housing 3
huddling 3
hula-hoop 3
hula-hoops 3
hundreds 3
hurdles 3
huts 3
i-@@ 3
ials 3
ians 3
ical 3
ically 3
il 3
ill 3
ily 3
impro@@ 3
incredi@@ 3
index 3
indians 3
inf@@ 3
infants 3
informal 3
ing@@ 3
inner@@ 3
inning 3
inse@@ 3
inten@@ 3
interested 3
interior 3
interview 3
intimate 3
investi@@ 3
ions 3
ious 3
ip@@ 3
ironing 3
ise 3
ished 3
italian 3
itself 3
jackhammer 3
janitor 3
jars 3
jects 3
joe 3
jogger 3
jour@@ 3
jug 3
jugg@@ 3
junk 3
karaoke 3
kart 3
keeper 3
kel@@ 3
kers 3
kettle 3
keyboards 3
kickboxing 3
kicker 3
kinds 3
kins 3
kissed 3
kit 3
kitty 3
kly 3
knee-@@ 3
kneel 3
knight 3
knits 3
knives 3
korean 3
labra@@ 3
laces 3
ladle 3
lakers 3
lakeside 3
landmark 3
lassoing 3
latex 3
latino 3
lation 3
launch 3
launches 3
launching 3
layered 3
lead@@ 3
leaf@@ 3
leafy 3
lec@@ 3
lego 3
lemon 3
lemon@@ 3
len@@ 3
leotards 3
let@@ 3
letter 3
ley 3
life@@ 3
limb 3
limo 3
lished 3
liter@@ 3
littered 3
lives 3
livestock 3
llama 3
lock@@ 3
locked 3
lollipop 3
lon@@ 3
lons 3
loop 3
los 3
lottery 3
lounges 3
lun@@ 3
ly@@ 3
ma 3
machete 3
mad 3
mad@@ 3
mag@@ 3
mal@@ 3
maneuvering 3
maneuvers 3
manhole 3
mani@@ 3
manic@@ 3
mannequins 3
manual 3
maple 3
mariachi 3
marina 3
marsh 3
master 3
math 3
meals 3
meditating 3
medium-sized 3
menus 3
mesmerized 3
mess@@ 3
meter 3
metropolitan 3
mets 3
mexico 3
mid-jump 3
middle-age 3
might 3
mike 3
mine 3
miniskirt 3
minne@@ 3
mirrored 3
mixed 3
mixes 3
mma 3
mock 3
mod@@ 3
moder@@ 3
monks 3
moose 3
mopping 3
mosaic 3
mosque 3
moss@@ 3
moved 3
multi-@@ 3
multit@@ 3
mur@@ 3
mush@@ 3
mustachioed 3
mustan@@ 3
na@@ 3
nali@@ 3
names 3
nan@@ 3
napkin 3
nas 3
nati@@ 3
national 3
natural 3
navigating 3
ndy 3
neck@@ 3
needed 3
needs 3
neu@@ 3
ney 3
ng 3
nibbling 3
nin@@ 3
ninj@@ 3
nintendo 3
noodle 3
notebooks 3
notice 3
now 3
numbered 3
nursing 3
nuts 3
ny@@ 3
o-@@ 3
obl@@ 3
observed 3
oc@@ 3
off@@ 3
offers 3
ohio 3
ollie 3
ols 3
onlooker 3
op@@ 3
opin@@ 3
opportunity 3
organized 3
orna@@ 3
ornament 3
ou@@ 3
our@@ 3
ous@@ 3
outcropping 3
outfielder 3
outstreached 3
overall 3
overlooks 3
overpass 3
ox@@ 3
oxford 3
pace 3
packages 3
pad@@ 3
paddlers 3
page 3
pages 3
paintball 3
painters 3
pairs 3
panda 3
paneled 3
paral@@ 3
pard 3
parka 3
parlor 3
partly 3
partner 3
pastor 3
pastry 3
patches 3
patiently 3
patriotic 3
patron 3
pause 3
paving 3
paw 3
paying 3
peaceful 3
pee@@ 3
pelic@@ 3
penguin 3
peo@@ 3
period 3
pets 3
ph@@ 3
pharmac@@ 3
phones 3
pierced 3
piercings 3
pitched 3
pitches 3
plains 3
planes 3
platter 3
playhouse 3
pleas@@ 3
pleasant 3
plo@@ 3
plugging 3
plum@@ 3
pockets 3
pointy 3
poker 3
pol@@ 3
polka-dot 3
pon@@ 3
poncho 3
ponchos 3
ponders 3
ponytails 3
poorly 3
popping 3
popsi@@ 3
popula@@ 3
portraits 3
positions 3
post-@@ 3
potatoes 3
pouting 3
powerpoint 3
press 3
presses 3
pressing 3
presum@@ 3
pretends 3
prevent 3
primitive 3
proce@@ 3
procession 3
professionally 3
profile 3
progr@@ 3
proof 3
prope@@ 3
protec@@ 3
protester 3
proud 3
proudly 3
provide 3
pruning 3
pul@@ 3
pulley 3
pump 3
pumpkins 3
pursued 3
que 3
qui@@ 3
quilt 3
racquet 3
ragged 3
rags 3
rain@@ 3
rainstorm 3
rakes 3
rappelling 3
rav@@ 3
re-@@ 3
recei@@ 3
recently 3
recliner 3
reco@@ 3
recor@@ 3
records 3
rectangular 3
reen@@ 3
refe@@ 3
referees 3
reflections 3
refreshing 3
refu@@ 3
reg@@ 3
rehearsing 3
rela@@ 3
related 3
released 3
reluc@@ 3
rely 3
remove 3
removed 3
removes 3
reporter 3
representing 3
rer 3
rescue 3
rese@@ 3
responding 3
rest@@ 3
restaurants 3
retriever 3
reviewing 3
rid 3
rig 3
ripp@@ 3
ripped 3
rise 3
rises 3
rit 3
rit@@ 3
ritual 3
river@@ 3
robed 3
rods 3
role 3
roller-bla@@ 3
roller-skating 3
ron@@ 3
rooms 3
rooster 3
route 3
rowers 3
ruler 3
run@@ 3
rushing 3
russi@@ 3
sad@@ 3
safely 3
sal 3
salmon 3
salu@@ 3
samurai 3
sandpit 3
sar@@ 3
sari 3
sat 3
satchel 3
sauna 3
save 3
saxophones 3
sca@@ 3
school-aged 3
schoolgirl 3
scienti@@ 3
scoops 3
scope 3
scor@@ 3
scraper 3
screams 3
screwdriver 3
scru@@ 3
seamstre@@ 3
secre@@ 3
secu@@ 3
secured 3
sedan 3
seemingly 3
selection 3
seren@@ 3
services 3
session 3
sexy 3
sha@@ 3
shaded 3
shading 3
shadowed 3
shampo@@ 3
shel@@ 3
shelf 3
shell 3
shelter 3
shi@@ 3
shielding 3
shots 3
shrimp 3
side@@ 3
signal 3
silk 3
silver@@ 3
simultan@@ 3
sin@@ 3
sipping 3
sippy 3
sips 3
situ@@ 3
size 3
sizes 3
skeleton 3
skill 3
skillfully 3
skin 3
skinned 3
sleds 3
sleeved 3
sleigh 3
slic@@ 3
slu@@ 3
slum@@ 3
smi@@ 3
smirking 3
smith 3
snoo@@ 3
snor@@ 3
snowbank 3
snowfla@@ 3
snows 3
sock 3
sof@@ 3
sol@@ 3
solar 3
solider 3
sombrero 3
some@@ 3
somersault 3
son@@ 3
soon 3
sour@@ 3
spain 3
sparkler 3
sparklers 3
sparks 3
sparse 3
spectacular 3
spic@@ 3
spiderman 3
spiking 3
spilled 3
spir@@ 3
spiral 3
spits 3
split@@ 3
sponge 3
spreading 3
spreads 3
sprinkled 3
sprinkles 3
sprinkling 3
sprints 3
squarepants 3
squat 3
squinting 3
ssi@@ 3
ssions 3
sta 3
stained 3
stant 3
stants 3
stap@@ 3
statute 3
staying 3
stethoscope 3
sti@@ 3
sticker 3
stle 3
stom@@ 3
ston@@ 3
stone-@@ 3
stony 3
stoo@@ 3
stre@@ 3
streaks 3
stream@@ 3
streams 3
streetlights 3
strewn 3
strobe 3
strumming 3
stu@@ 3
study 3
styrofoam 3
sucks 3
suds 3
suite 3
suited 3
sun-@@ 3
sunhats 3
sure 3
surf@@ 3
surfboards 3
suspen@@ 3
sweating 3
sweep 3
sweet 3
swer@@ 3
swoo@@ 3
swor@@ 3
sym@@ 3
ta 3
tack@@ 3
tailed 3
tained 3
takeout 3
talkie 3
tambourine 3
tank-top 3
tanned 3
tar 3
tasks 3
tasty 3
tat@@ 3
technic@@ 3
tee-shirt 3
tee@@ 3
tel@@ 3
telling 3
tells 3
tend 3
tends 3
terior 3
testing 3
tethered 3
thers 3
thre@@ 3
thread 3
threw 3
thro@@ 3
ths 3
tics 3
tie-@@ 3
tin 3
tion@@ 3
tist 3
tiv@@ 3
tle@@ 3
tobacco 3
toen@@ 3
toilets 3
ton@@ 3
took 3
topped 3
toss 3
towed 3
towering 3
toyota 3
track@@ 3
trai@@ 3
transport 3
transporting 3
trap 3
treats 3
tresses 3
tricycles 3
trin@@ 3
trio 3
trips 3
trots 3
trouble 3
trough 3
trumpets 3
tter 3
tuba 3
tug 3
tulips 3
tum@@ 3
turbans 3
tures 3
turf 3
turtleneck 3
tutus 3
tuxedos 3
tw@@ 3
twigs 3
twilight 3
twirl 3
twirls 3
two-piece 3
u.@@ 3
ulting 3
ults 3
umb@@ 3
umber 3
uncompleted 3
underway 3
uniquely 3
unison 3
united 3
unusually 3
upcoming 3
uphill 3
upper 3
urin@@ 3
ut 3
utensils 3
vacant 3
vacuums 3
val 3
vaulting 3
veil 3
vement 3
ven@@ 3
verse 3
veteran 3
vice 3
videotapes 3
vie@@ 3
vietnamese 3
vigorously 3
vil@@ 3
vin@@ 3
violins 3
visit@@ 3
vivid 3
volunte@@ 3
volunteers 3
vs 3
wa@@ 3
wade 3
waff@@ 3
waited 3
waking 3
walk@@ 3
walker 3
walkie 3
wallet 3
warmly 3
warri@@ 3
web 3
wed 3
weigh@@ 3
welds 3
well-@@ 3
wheat 3
wheeling 3
white@@ 3
whose 3
wii 3
wildflowers 3
winded 3
window@@ 3
wling 3
wn@@ 3
wonder 3
woodworking 3
wrest@@ 3
wrong 3
yant 3
yawning 3
years 3
yet 3
ym@@ 3
ywood 3
zip 3
zip@@ 3
zombie 3
zombies 3
% 2
,00@@ 2
-block 2
-chested 2
-deep 2
-laden 2
-legged 2
-red 2
-side 2
-to@@ 2
-way 2
-wheeler 2
.@@ 2
.com 2
00 2
00@@ 2
13 2
14 2
18@@ 2
19@@ 2
1@@ 2
2.@@ 2
2008 2
20@@ 2
38 2
63 2
6@@ 2
80 2
a. 2
acce@@ 2
accep@@ 2
accompani@@ 2
acious 2
acker 2
ackers 2
actions 2
active 2
actment 2
acy 2
ada 2
add 2
adds 2
ades 2
adi@@ 2
ading 2
adjac@@ 2
adobe 2
adole@@ 2
ads 2
aero@@ 2
afri@@ 2
aft 2
ager 2
aggre@@ 2
aging 2
ah 2
aims 2
ain 2
aint 2
ak@@ 2
aking 2
al-@@ 2
ala@@ 2
album 2
alcoho@@ 2
ale 2
align 2
alling 2
alo 2
alof@@ 2
aloud 2
alpine 2
altit@@ 2
alty 2
always 2
ama 2
ama@@ 2
amaran 2
amber 2
amic 2
ampu@@ 2
anci@@ 2
and-@@ 2
announ@@ 2
annu@@ 2
anor@@ 2
anside 2
answ@@ 2
ants 2
anxiously 2
ap 2
ape@@ 2
apped 2
apping 2
arches 2
ari@@ 2
arling 2
arm@@ 2
armo@@ 2
arrange 2
array 2
arri@@ 2
art@@ 2
arti@@ 2
ascar 2
aside 2
assem@@ 2
assign@@ 2
assor@@ 2
aston@@ 2
at-@@ 2
ater 2
aters 2
ative 2
atlan@@ 2
atment 2
ato@@ 2
aty@@ 2
ave 2
aviator 2
aving 2
awaiting 2
awk@@ 2
back-up 2
backed 2
backflip 2
backing 2
bad 2
bagel 2
bake 2
baking 2
bale 2
bales 2
ball@@ 2
baller 2
balling 2
baltimore 2
bandan@@ 2
bands 2
barbecu@@ 2
bare@@ 2
barri@@ 2
based 2
baza@@ 2
bbles 2
beaker 2
bean 2
beau@@ 2
become 2
bed@@ 2
beds 2
bee@@ 2
bei@@ 2
bel@@ 2
bemu@@ 2
bes 2
bespectac@@ 2
bians 2
bibs 2
bill 2
bistro 2
bits 2
blan@@ 2
blank 2
blasts 2
bled 2
blo@@ 2
blond-@@ 2
blosso@@ 2
boar@@ 2
boaters 2
bodies 2
bomb@@ 2
bone 2
bored 2
born 2
bott@@ 2
bou@@ 2
bout 2
bout@@ 2
bowing 2
brace 2
brea@@ 2
brick-@@ 2
bridesm@@ 2
brief@@ 2
brigh@@ 2
bright@@ 2
broccol@@ 2
broch@@ 2
broo@@ 2
brothers 2
bside 2
buck 2
bucked 2
buff@@ 2
bugs 2
builder 2
builds 2
bump 2
bun 2
busily 2
busk@@ 2
bust 2
buster 2
buys 2
bystan@@ 2
cade 2
caged 2
camera@@ 2
carav@@ 2
carcas@@ 2
care@@ 2
cari@@ 2
carol 2
cartons 2
cashier 2
casi@@ 2
castro 2
cavern 2
ced 2
cers 2
cess 2
cess@@ 2
chal@@ 2
challen@@ 2
check@@ 2
chemic@@ 2
cher 2
chested 2
chet 2
chili 2
chisel@@ 2
chri@@ 2
chur@@ 2
cil 2
cin@@ 2
citi@@ 2
class@@ 2
classi@@ 2
clause 2
cle 2
cler@@ 2
cliffs 2
clips 2
clo@@ 2
clog 2
close@@ 2
closing 2
co 2
coached 2
coaches 2
coated 2
cob 2
cocon@@ 2
coeds 2
coin-@@ 2
color@@ 2
comic 2
comical 2
comm@@ 2
commu@@ 2
compartment 2
compet@@ 2
con 2
condi@@ 2
conditi@@ 2
condoms 2
confe@@ 2
confu@@ 2
congreg@@ 2
conif@@ 2
conne@@ 2
conve@@ 2
copies 2
copy 2
cottage 2
couches 2
could 2
coworker 2
craf@@ 2
cray@@ 2
crow 2
cting 2
cuc@@ 2
cue 2
cupping 2
curi@@ 2
cutou@@ 2
cutter 2
cy 2
dag@@ 2
dame 2
dandel@@ 2
dane 2
dapp@@ 2
daring 2
dash 2
dav@@ 2
dea 2
debook 2
deci@@ 2
decked 2
defla@@ 2
depic@@ 2
des@@ 2
deser@@ 2
desig@@ 2
detail 2
determin@@ 2
devil 2
dge@@ 2
dged 2
dging 2
dh@@ 2
diagr@@ 2
diamond 2
diaper 2
dic@@ 2
did 2
didgeri@@ 2
die@@ 2
diet 2
diff@@ 2
dim 2
dip 2
diplo@@ 2
direct 2
disco 2
distrac@@ 2
dle-@@ 2
dlel@@ 2
dober@@ 2
doll@@ 2
don@@ 2
doodle 2
dos 2
downing 2
drag@@ 2
drain 2
draiser 2
drape 2
dread@@ 2
dress@@ 2
drun@@ 2
dspeaker 2
due 2
dul@@ 2
dum@@ 2
dun@@ 2
easy 2
ecle@@ 2
ed@@ 2
edi@@ 2
egg@@ 2
egre@@ 2
eing 2
elabor@@ 2
eled 2
eles 2
elev@@ 2
ell 2
ely 2
ement 2
emotion 2
enches 2
enga@@ 2
enrolling 2
ensem@@ 2
ensure 2
entertain@@ 2
ential 2
entran@@ 2
entre@@ 2
envelo@@ 2
eously 2
eple@@ 2
equ@@ 2
erec@@ 2
escala@@ 2
esp@@ 2
etly 2
ette 2
ev@@ 2
even@@ 2
every@@ 2
exerci@@ 2
exhib@@ 2
explo@@ 2
exten@@ 2
ey 2
ey@@ 2
eyard 2
eyel@@ 2
fairway 2
fam@@ 2
fare 2
fashi@@ 2
fau@@ 2
fe-beater 2
feels 2
fest 2
ffel 2
ffs 2
ffy 2
fiddles 2
fier 2
finger@@ 2
fini@@ 2
fire@@ 2
fired 2
fires 2
fitting 2
fixture 2
flow 2
flow@@ 2
focal 2
foli@@ 2
forever 2
form@@ 2
formally 2
fris@@ 2
frolic 2
frolic@@ 2
fron@@ 2
frothy 2
frown 2
frowning 2
frowns 2
ful@@ 2
fum@@ 2
furiously 2
fway 2
fying 2
ga@@ 2
gal@@ 2
gall@@ 2
gan 2
gant 2
gate@@ 2
gating 2
gg@@ 2
gged 2
ggling 2
gir@@ 2
glam@@ 2
glow 2
gn@@ 2
goal@@ 2
god 2
gol@@ 2
golian 2
gon 2
gon@@ 2
gos 2
gradu@@ 2
grain 2
grains 2
grap@@ 2
grasps 2
grate 2
gration 2
grav@@ 2
greens 2
gril@@ 2
grimac@@ 2
grin 2
groom@@ 2
grooms 2
groucho 2
gry 2
gshot 2
gton 2
guage 2
gue@@ 2
guides 2
gun@@ 2
ha 2
ham 2
happe@@ 2
hard@@ 2
harve@@ 2
hat@@ 2
hea@@ 2
heal@@ 2
hear@@ 2
heat 2
hedges 2
height 2
heine@@ 2
helper 2
herd 2
hes 2
hid 2
hide 2
hides 2
higan 2
high@@ 2
hija@@ 2
hil@@ 2
hip 2
hist 2
hitter 2
hoe 2
hog 2
hoi@@ 2
hokey 2
hollow 2
homes 2
hoping 2
hopper 2
hops 2
hovering 2
hs 2
hul@@ 2
hunt 2
hy@@ 2
hydr@@ 2
iced 2
ician 2
icic@@ 2
icing 2
icking 2
icul@@ 2
identi@@ 2
ides 2
idle 2
iers 2
iglo@@ 2
iling 2
illac 2
illu@@ 2
illumin@@ 2
imitation 2
immi@@ 2
impor@@ 2
in-@@ 2
inary 2
incen@@ 2
ine@@ 2
ined 2
infla@@ 2
informally 2
ing-@@ 2
ink 2
ink@@ 2
inn 2
inno@@ 2
inspi@@ 2
inte@@ 2
invol@@ 2
ior 2
iow@@ 2
ique 2
ir 2
iri@@ 2
irons 2
irrit@@ 2
irts 2
isle 2
issue 2
itage 2
ital 2
ital@@ 2
itali@@ 2
itate 2
itch@@ 2
ites 2
ition 2
itted 2
ivi@@ 2
iz@@ 2
ize 2
ized 2
izing 2
jack-o-@@ 2
jackhammers 2
jacks 2
jackson 2
jagged 2
jam@@ 2
james 2
ject 2
jesus 2
jets 2
jim 2
joh@@ 2
joking 2
jostle 2
jou@@ 2
joy@@ 2
jum@@ 2
kabo@@ 2
kee 2
kee@@ 2
keling 2
ker@@ 2
ket@@ 2
kets 2
key@@ 2
kill 2
kimon@@ 2
kish 2
kking 2
kle@@ 2
kne@@ 2
komo@@ 2
ku@@ 2
kwon 2
l-@@ 2
lab@@ 2
labor 2
lack 2
lake@@ 2
laps 2
large-@@ 2
lars 2
later 2
lau@@ 2
lava 2
laven@@ 2
lavi@@ 2
ld 2
leak 2
leashed 2
leave 2
lebron 2
left-@@ 2
leisu@@ 2
lem 2
less@@ 2
letter@@ 2
letting 2
leys 2
lifier 2
likes 2
limbs 2
lishes 2
lizard 2
lls 2
lly 2
loader 2
loaf 2
locker 2
locking 2
locks 2
lodge 2
lom 2
longing 2
lors 2
loses 2
lovers 2
low@@ 2
lows 2
lting 2
mac@@ 2
magi@@ 2
mail 2
maje@@ 2
maker 2
mal 2
maracas 2
marl@@ 2
mart 2
martin@@ 2
marx 2
master@@ 2
mauve 2
mber 2
mbs 2
mean@@ 2
meats 2
melon 2
melons 2
memor@@ 2
mer 2
mer@@ 2
met 2
middle-@@ 2
mini@@ 2
mirro@@ 2
mly 2
mmage 2
mmed 2
mney 2
mob 2
mold 2
moms 2
moon 2
motions 2
motive 2
motori@@ 2
mounds 2
mountain@@ 2
mover 2
mowed 2
mugs 2
multi@@ 2
nal 2
nap@@ 2
nat@@ 2
navig@@ 2
ne 2
nears 2
neatly 2
necks 2
need 2
neighbor@@ 2
nel 2
ner 2
nerf 2
ners 2
nical 2
nips 2
non-@@ 2
notre 2
oak@@ 2
oars 2
occu@@ 2
occur@@ 2
oce@@ 2
od 2
odd@@ 2
offe@@ 2
offic@@ 2
oh 2
ol 2
ola 2
oles 2
oling 2
olym@@ 2
on-@@ 2
oncoming 2
one@@ 2
onry 2
op 2
open-@@ 2
open@@ 2
orange@@ 2
ordin@@ 2
ore@@ 2
orn 2
orous 2
ors 2
ounds 2
ourin@@ 2
outboard 2
outs 2
ow@@ 2
owl 2
ox 2
pabst 2
pac@@ 2
packs 2
pact 2
padd@@ 2
pajam@@ 2
pam@@ 2
panadas 2
pancakes 2
pane 2
pap@@ 2
paper@@ 2
para@@ 2
parachu@@ 2
parapher@@ 2
paris 2
park@@ 2
parks 2
parrot 2
part@@ 2
partic@@ 2
partici@@ 2
pas@@ 2
passer 2
pean@@ 2
pearls 2
pebbles 2
pec@@ 2
peep 2
pelo@@ 2
pengu@@ 2
penske 2
peoples 2
peppers 2
per-class 2
percu@@ 2
perfum@@ 2
pers 2
peruses 2
pewrit@@ 2
pf 2
phon@@ 2
phony 2
photo@@ 2
pians 2
pick@@ 2
pid 2
pig@@ 2
pigs 2
pil@@ 2
pione@@ 2
pipers 2
pitbull 2
pizz@@ 2
placard 2
placi@@ 2
plaque 2
plaster 2
plat@@ 2
ple 2
ples 2
plow 2
plu@@ 2
podi@@ 2
pods 2
poin@@ 2
poke@@ 2
polka-@@ 2
poll@@ 2
pomer@@ 2
pompo@@ 2
possi@@ 2
post@@ 2
poul@@ 2
pour 2
pout 2
pp@@ 2
ppers 2
pple 2
ppy 2
pray 2
prepping 2
preschool 2
pressed 2
pretend 2
pretz@@ 2
previously 2
prin@@ 2
pro-@@ 2
procla@@ 2
proje@@ 2
prop 2
proper@@ 2
props 2
pt 2
ption 2
puff 2
pula@@ 2
pus 2
putt 2
puzz@@ 2
quart@@ 2
que@@ 2
ques 2
quil@@ 2
rack@@ 2
racks 2
rad 2
rad@@ 2
ral@@ 2
ran 2
rates 2
reacting 2
reaction 2
read@@ 2
reas@@ 2
reci@@ 2
refresh@@ 2
refri@@ 2
regar@@ 2
rehear@@ 2
reindeer 2
rel 2
religi@@ 2
rema@@ 2
remember 2
reno@@ 2
reograph@@ 2
rep@@ 2
repair@@ 2
resem@@ 2
resour@@ 2
respon@@ 2
resso 2
rested 2
rette 2
ri 2
ribs 2
rican 2
rick 2
rics 2
rif@@ 2
rising 2
risk 2
rist 2
rist@@ 2
roads 2
rodgers 2
roller-@@ 2
roller@@ 2
ron 2
roo@@ 2
roof@@ 2
room@@ 2
roots 2
rose 2
rot@@ 2
rou@@ 2
rough@@ 2
roun@@ 2
rout@@ 2
row@@ 2
rugged 2
rum@@ 2
rup 2
rusted 2
ry-@@ 2
sai@@ 2
sales 2
sandwic@@ 2
sary 2
sash 2
sat@@ 2
saving 2
saxo@@ 2
scaffol@@ 2
scan 2
scellan@@ 2
scen@@ 2
scent 2
scho@@ 2
scoo@@ 2
scra@@ 2
scrat@@ 2
scrubbing 2
sculp@@ 2
scythe 2
sday 2
seal 2
seas 2
secon@@ 2
secur@@ 2
segway 2
sely 2
semin@@ 2
sequ@@ 2
sesame 2
setup 2
sew 2
sewer 2
sews 2
sh-@@ 2
shab@@ 2
shacking 2
shado@@ 2
shield 2
shift 2
shine 2
shipping 2
shir@@ 2
shish 2
shopper 2
shor@@ 2
shoul@@ 2
shouts 2
shrine 2
shrubb@@ 2
sibling 2
sid@@ 2
side-down 2
sidel@@ 2
sidewalks 2
sig@@ 2
sign@@ 2
sil@@ 2
sill 2
simp@@ 2
simple 2
sist 2
sisters 2
sites 2
sive 2
ska 2
skit 2
sks 2
skul@@ 2
sl@@ 2
slam@@ 2
slan@@ 2
slim 2
sling 2
slo@@ 2
slou@@ 2
slow 2
sm 2
sman 2
sne@@ 2
snoopy 2
soap@@ 2
sodas 2
solid 2
sor@@ 2
sota 2
spa 2
spagh@@ 2
spani@@ 2
spare 2
spark@@ 2
spattered 2
spe@@ 2
spec@@ 2
speckled 2
spid@@ 2
spinner 2
spout 2
sprin@@ 2
stainless 2
stake 2
ste 2
stem 2
ster@@ 2
stern 2
stic 2
stic@@ 2
stitch 2
stock 2
ston 2
stori@@ 2
stout 2
strain@@ 2
streaming 2
strick@@ 2
strips 2
struc@@ 2
struggle 2
strung 2
stuff@@ 2
stun@@ 2
sty 2
submer@@ 2
suc@@ 2
sucker 2
sum@@ 2
sunday 2
sunflower 2
sung 2
super 2
surprised 2
sushi 2
suspect 2
sveral 2
swaddled 2
swal@@ 2
swamp 2
swans 2
sweat@@ 2
swee@@ 2
swi@@ 2
swir@@ 2
swit@@ 2
swung 2
sy@@ 2
syn@@ 2
t-like 2
table@@ 2
tae 2
tail@@ 2
tains 2
take@@ 2
tal@@ 2
tamb@@ 2
taped 2
taping 2
tas@@ 2
tati@@ 2
tau@@ 2
te-@@ 2
teachers 2
teaches 2
tear 2
tears 2
teas@@ 2
tech 2
tech@@ 2
tele@@ 2
tent-like 2
termin@@ 2
terri@@ 2
tests 2
thai 2
thatched 2
theast 2
theat@@ 2
then 2
thful 2
thong 2
thouse 2
thri@@ 2
through@@ 2
thur@@ 2
timber 2
tionary 2
tipped 2
tipping 2
tlights 2
tment 2
toes 2
toil 2
toll 2
tote 2
toting 2
tow@@ 2
trac@@ 2
trad@@ 2
trade 2
trading 2
trails 2
tran@@ 2
treads 2
tress 2
tri-colored 2
triang@@ 2
triangle 2
trid@@ 2
trim 2
trol@@ 2
true 2
ts@@ 2
tt@@ 2
tters 2
ttes 2
tting 2
tty 2
turbul@@ 2
turkeys 2
turn@@ 2
turous 2
twe@@ 2
twen@@ 2
twin 2
twined 2
twins 2
two@@ 2
uding 2
ues 2
ufc 2
uggling 2
ugh 2
ular 2
umbling 2
ump@@ 2
under@@ 2
unfriendly 2
unk 2
unke@@ 2
unload 2
unt 2
unwraps 2
ura 2
ure@@ 2
urs 2
ury 2
ution 2
v 2
v-@@ 2
va 2
van@@ 2
vari@@ 2
vase 2
vate 2
vation 2
velo@@ 2
ven 2
vered 2
vering 2
vers 2
version 2
vessel 2
victori@@ 2
video@@ 2
vider 2
vie 2
viewed 2
vikings 2
vin 2
vio@@ 2
visit 2
vo 2
voc@@ 2
volle@@ 2
vre 2
vw 2
wag@@ 2
wai@@ 2
wan 2
wand 2
wants 2
was@@ 2
wash@@ 2
watered 2
watery 2
wavy 2
web@@ 2
wee 2
wered 2
west 2
wet@@ 2
whate@@ 2
whis@@ 2
wil@@ 2
wild@@ 2
winds 2
wine@@ 2
winks 2
witne@@ 2
wits 2
wls 2
wns 2
wo@@ 2
wok 2
wood@@ 2
wooden-@@ 2
worked 2
worried 2
worshi@@ 2
woul@@ 2
wounds 2
wre@@ 2
wren@@ 2
writ@@ 2
wy 2
xes 2
xi@@ 2
xing 2
xture 2
ya@@ 2
yan@@ 2
yc@@ 2
ycling 2
yel@@ 2
yells 2
yg@@ 2
yment 2
yo@@ 2
yor 2
za@@ 2
zards 2
zen 2
zig@@ 2
zune 2
zz@@ 2
$ 1
'@@ 1
-american 1
.a 1
08 1
0@@ 1
100 1
12@@ 1
14@@ 1
16 1
19 1
21 1
22 1
25 1
27 1
28 1
28@@ 1
2@@ 1
33 1
35 1
39 1
3d 1
40 1
41 1
43 1
44 1
46 1
500@@ 1
52 1
53 1
661 1
697 1
70 1
84 1
85 1
93 1
94 1
95 1
96 1
= 1
aa@@ 1
aar@@ 1
aban@@ 1
accordi@@ 1
ach 1
acher 1
ack@@ 1
acrob@@ 1
aded 1
adju@@ 1
admi@@ 1
ado 1
advan@@ 1
adverti@@ 1
afe 1
after@@ 1
again@@ 1
agh@@ 1
agr@@ 1
ague 1
aids 1
ain@@ 1
ains 1
aker 1
akers 1
aks 1
ales 1
alle@@ 1
alls 1
amc 1
ame 1
aming 1
anne 1
ao@@ 1
apar@@ 1
ape 1
apers 1
apes 1
apho@@ 1
appar@@ 1
appe@@ 1
approxim@@ 1
aqu@@ 1
arabi@@ 1
arching 1
ards 1
are@@ 1
arls 1
arly 1
arran@@ 1
arrange@@ 1
ase 1
ashed 1
asi@@ 1
asm 1
asse 1
astro@@ 1
atched 1
ath 1
ather 1
athle@@ 1
atory 1
attemp@@ 1
attered 1
attle 1
attrac@@ 1
au 1
aveda 1
avrovul@@ 1
ay@@ 1
bal 1
ban 1
barre@@ 1
barric@@ 1
base@@ 1
baske@@ 1
bathro@@ 1
bby 1
bear@@ 1
beater 1
ben@@ 1
bene@@ 1
ber 1
bies 1
bikin@@ 1
bill@@ 1
binocu@@ 1
blind@@ 1
blow@@ 1
bon 1
boo 1
book@@ 1
bor 1
borne 1
box@@ 1
brac@@ 1
braz@@ 1
bren@@ 1
brie@@ 1
bron@@ 1
broni@@ 1
brow@@ 1
brown@@ 1
brun@@ 1
bua 1
bub@@ 1
bulldo@@ 1
bum 1
bump@@ 1
busine@@ 1
business@@ 1
butch@@ 1
butter@@ 1
by@@ 1
c.@@ 1
cabin@@ 1
came@@ 1
camp@@ 1
capped 1
carhar@@ 1
carou@@ 1
cathedr@@ 1
cau@@ 1
cauc@@ 1
cd 1
cep@@ 1
cept 1
cg@@ 1
chalk@@ 1
chas@@ 1
chin@@ 1
chop@@ 1
cig@@ 1
ck-@@ 1
cke@@ 1
cker 1
cket 1
ckled 1
clar@@ 1
clarin@@ 1
cloth@@ 1
clou@@ 1
coa@@ 1
cob@@ 1
cock@@ 1
colle@@ 1
colo@@ 1
competit@@ 1
concer@@ 1
concre@@ 1
congre@@ 1
construc@@ 1
contem@@ 1
contro@@ 1
convers@@ 1
cool@@ 1
counter@@ 1
countr@@ 1
cover@@ 1
cow@@ 1
cran@@ 1
craw@@ 1
credi@@ 1
crist@@ 1
ctor 1
cup@@ 1
curren@@ 1
d-in 1
dai@@ 1
dam@@ 1
dan 1
das 1
dave 1
day@@ 1
dd@@ 1
dder 1
ddle 1
deal@@ 1
del 1
dele@@ 1
delic@@ 1
den-@@ 1
desser@@ 1
dex 1
dgers 1
diffe@@ 1
dino@@ 1
dio 1
dish@@ 1
dmc 1
donal@@ 1
doned 1
dor 1
dor@@ 1
dr 1
dram@@ 1
dre@@ 1
dump@@ 1
dv@@ 1
ea@@ 1
eas@@ 1
eat@@ 1
ebay 1
ec 1
eds 1
ee@@ 1
ef@@ 1
eful 1
eg@@ 1
electri@@ 1
elo@@ 1
emer@@ 1
ena 1
ened 1
energi@@ 1
enth@@ 1
enthusia@@ 1
enti@@ 1
ently 1
entr@@ 1
envi@@ 1
eo 1
equip@@ 1
ere 1
erly 1
erry 1
ese 1
est 1
establ@@ 1
eu@@ 1
euro@@ 1
ever@@ 1
exc@@ 1
exer@@ 1
expan@@ 1
fabri@@ 1
famil@@ 1
fc 1
fd 1
festi@@ 1
fez 1
fied 1
fig@@ 1
fighters 1
fits 1
flan@@ 1
flat@@ 1
flec@@ 1
flee@@ 1
flops 1
footed 1
fortun@@ 1
fox 1
fra@@ 1
ft 1
furn@@ 1
gallo@@ 1
gamecu@@ 1
garden@@ 1
gators 1
ge-@@ 1
geish@@ 1
gelados 1
gency 1
gers 1
ggers 1
gging 1
ggles 1
ggy 1
ghter 1
ghtly 1
girl@@ 1
gla@@ 1
gles 1
gly 1
gnon 1
goo@@ 1
gover@@ 1
graf@@ 1
graphi@@ 1
gste@@ 1
guar@@ 1
guit@@ 1
gular 1
handle@@ 1
handr@@ 1
harmon@@ 1
hawai@@ 1
heav@@ 1
heel 1
helme@@ 1
hen@@ 1
hi-vi@@ 1
hill@@ 1
hispan@@ 1
hla@@ 1
ho 1
hodo 1
holmgre@@ 1
hono@@ 1
hortons 1
hosp@@ 1
hudd@@ 1
hula-@@ 1
hula@@ 1
ial 1
ice@@ 1
ide 1
iden@@ 1
ident 1
ids 1
ies 1
if@@ 1
ima@@ 1
impre@@ 1
ina 1
ination 1
inclu@@ 1
indu@@ 1
inging 1
inju@@ 1
instal@@ 1
iors 1
ipating 1
iphone 1
irt 1
ish@@ 1
ishment 1
ister 1
isu@@ 1
itating 1
itation 1
itch 1
ite@@ 1
ited 1
ith 1
iting 1
itten 1
itter 1
itti 1
itting 1
ja@@ 1
jack@@ 1
javel@@ 1
jer@@ 1
jewel@@ 1
ji 1
jump@@ 1
jun@@ 1
kar@@ 1
kel 1
kerchie@@ 1
ket 1
kid@@ 1
kie 1
kin 1
kin@@ 1
kings 1
kit@@ 1
koffe@@ 1
kok 1
l.e.@@ 1
label@@ 1
ladd@@ 1
lared 1
lasso@@ 1
latin@@ 1
laugh@@ 1
laun@@ 1
lay@@ 1
leas@@ 1
lebee 1
lee@@ 1
leis 1
lem@@ 1
leng@@ 1
lexmark 1
lif@@ 1
liner 1
liqu@@ 1
lish 1
lit@@ 1
lla 1
lla@@ 1
lli@@ 1
lo 1
loc@@ 1
lou 1
luc@@ 1
lum@@ 1
mae 1
mage 1
magni@@ 1
maid 1
mail@@ 1
maj@@ 1
maneu@@ 1
marley 1
maruga 1
mc@@ 1
mechan@@ 1
memb@@ 1
mering 1
mes 1
metro@@ 1
milit@@ 1
mit@@ 1
mn 1
mo 1
monit@@ 1
mono@@ 1
mosa 1
motorc@@ 1
mpor@@ 1
musi@@ 1
must@@ 1
na 1
name@@ 1
nav@@ 1
nehill 1
ner@@ 1
nic 1
nic@@ 1
nis 1
nt 1
nu@@ 1
numer@@ 1
nur@@ 1
obser@@ 1
obstac@@ 1
od@@ 1
ode@@ 1
oed 1
of@@ 1
oid 1
ok@@ 1
old-@@ 1
onable 1
ong@@ 1
opp@@ 1
oran@@ 1
org@@ 1
orn@@ 1
ou 1
ough 1
oul@@ 1
ound@@ 1
ount 1
ouse 1
outfiel@@ 1
ozzy 1
paci@@ 1
pain@@ 1
paint@@ 1
pal@@ 1
passion@@ 1
path@@ 1
pati@@ 1
patrio@@ 1
pav@@ 1
pens 1
pensive 1
pepper 1
perform@@ 1
peri@@ 1
perla 1
pers@@ 1
phan@@ 1
pho@@ 1
pic 1
pics 1
pir@@ 1
pitch@@ 1
pnc 1
pod 1
police@@ 1
pop@@ 1
posse@@ 1
posta@@ 1
pou@@ 1
pover@@ 1
pow 1
power@@ 1
ppens 1
pra@@ 1
prac@@ 1
prari@@ 1
prep@@ 1
pres@@ 1
press@@ 1
preven@@ 1
prim@@ 1
prised 1
produ@@ 1
prote@@ 1
prun@@ 1
psy@@ 1
publ@@ 1
pursu@@ 1
py@@ 1
q@@ 1
quar@@ 1
quarter@@ 1
quattro 1
quet 1
quo@@ 1
race@@ 1
raf@@ 1
rai@@ 1
rail@@ 1
ral 1
ram@@ 1
rece@@ 1
rect 1
red@@ 1
ree 1
reli@@ 1
rence 1
rent 1
restaur@@ 1
ret 1
ricksha@@ 1
rio@@ 1
riz@@ 1
ro 1
rol 1
roll@@ 1
rollers 1
rona 1
roni@@ 1
roper 1
rot 1
rubbing 1
rung 1
ryan 1
rying 1
s.c.@@ 1
saf@@ 1
sala@@ 1
sand@@ 1
scape 1
school@@ 1
scopes 1
screw@@ 1
self 1
sheep@@ 1
shep@@ 1
shier 1
shoeg@@ 1
silhoue@@ 1
sity 1
sk 1
skate@@ 1
skele@@ 1
skil@@ 1
skim@@ 1
smoo@@ 1
smu 1
sna@@ 1
sno@@ 1
sociali@@ 1
solit@@ 1
somb@@ 1
sombre@@ 1
soon@@ 1
soy 1
spect 1
spee@@ 1
spon@@ 1
spra@@ 1
sque 1
squee@@ 1
ssel 1
sser@@ 1
ssive 1
sso@@ 1
ssor 1
ssue 1
stac@@ 1
stal@@ 1
stati@@ 1
stically 1
stock@@ 1
stor@@ 1
stra@@ 1
strac@@ 1
straw@@ 1
stree@@ 1
stro 1
stru@@ 1
stures 1
sugar@@ 1
sunba@@ 1
surge@@ 1
surroun@@ 1
sus 1
sva 1
swatch 1
swim@@ 1
swo 1
sx@@ 1
symbo@@ 1
synchroni@@ 1
taga 1
tai@@ 1
taining 1
tambor 1
tation 1
tators 1
tebow 1
teen@@ 1
tehel@@ 1
tens 1
tered 1
thered 1
thi@@ 1
thin@@ 1
thumb@@ 1
tial 1
tially 1
tical 1
tice 1
tight@@ 1
tomat@@ 1
tons 1
too@@ 1
toon 1
tooth@@ 1
tori@@ 1
tory 1
towe@@ 1
train@@ 1
transpor@@ 1
tree-@@ 1
tric 1
tric@@ 1
tro 1
trou@@ 1
tt 1
tte 1
tti 1
tti@@ 1
tun@@ 1
tup 1
tur@@ 1
turt@@ 1
tus 1
twi@@ 1
tz@@ 1
ulp@@ 1
um@@ 1
uma 1
umb 1
ump 1
una 1
uni@@ 1
unic@@ 1
unidenti@@ 1
univer@@ 1
ute@@ 1
utensi@@ 1
util@@ 1
uts 1
uw 1
vac@@ 1
vans 1
vege@@ 1
vel 1
vespa 1
veter@@ 1
vette 1
vid@@ 1
violin@@ 1
vir@@ 1
virou 1
visi@@ 1
vons 1
vul@@ 1
wait@@ 1
wall-@@ 1
walter 1
wat@@ 1
watch@@ 1
watcher 1
whack 1
whe@@ 1
wheel@@ 1
wheelbar@@ 1
with@@ 1
wl 1
wmo@@ 1
wn 1
wning 1
woks 1
won 1
woo@@ 1
work@@ 1
wow 1
xe 1
xim@@ 1
xiously 1
xo@@ 1
xylo@@ 1
yan 1
yar@@ 1
ycles 1
yo 1
yor@@ 1
young@@ 1
ypoun@@ 1
yst@@ 1
yway 1
za 1
zales 1
ze@@ 1
zi@@ 1
zno@@ 1
zo@@ 1
